{"</PAD>": 0, "</START>": 1, "</END>": 2, "</UNK>": 3, "</w>": 4, "transplantation</w>": 5, "administration</w>": 6, "concentrations</w>": 7, "abnormalities</w>": 8, "complications</w>": 9, "concentration</w>": 10, "postoperative</w>": 11, "significantly</w>": 12, "chemotherapy</w>": 13, "complication</w>": 14, "demonstrated</w>": 15, "hypertension</w>": 16, "hypertensive</w>": 17, "inflammatory</w>": 18, "preoperative</w>": 19, "relationship</w>": 20, "respectively</w>": 21, "angioplasty</w>": 22, "association</w>": 23, "cholesterol</w>": 24, "combination</w>": 25, "consecutive</w>": 26, "correlation</w>": 27, "development</w>": 28, "differences</w>": 29, "dysfunction</w>": 30, "examination</w>": 31, "improvement</w>": 32, "intravenous</w>": 33, "obstruction</w>": 34, "prospective</w>": 35, "respiratory</w>": 36, "sensitivity</w>": 37, "significant</w>": 38, "stimulation</w>": 39, "ventricular</w>": 40, "antibodies</w>": 41, "assessment</w>": 42, "associated</w>": 43, "comparison</w>": 44, "considered</w>": 45, "controlled</w>": 46, "correlated</w>": 47, "determined</w>": 48, "diagnostic</w>": 49, "difference</w>": 50, "esophageal</w>": 51, "evaluation</w>": 52, "experience</w>": 53, "expression</w>": 54, "functional</w>": 55, "hemorrhage</w>": 56, "identified</w>": 57, "infarction</w>": 58, "intestinal</w>": 59, "management</w>": 60, "metastases</w>": 61, "metastatic</w>": 62, "myocardial</w>": 63, "pancreatic</w>": 64, "peripheral</w>": 65, "population</w>": 66, "previously</w>": 67, "procedures</w>": 68, "randomized</w>": 69, "recurrence</w>": 70, "successful</w>": 71, "undergoing</w>": 72, "abdominal</w>": 73, "alization</w>": 74, "carcinoma</w>": 75, "decreased</w>": 76, "dependent</w>": 77, "described</w>": 78, "detection</w>": 79, "determine</w>": 80, "developed</w>": 81, "diagnosed</w>": 82, "diagnosis</w>": 83, "different</w>": 84, "effective</w>": 85, "evaluated</w>": 86, "follow-up</w>": 87, "following</w>": 88, "formation</w>": 89, "frequency</w>": 90, "hepatitis</w>": 91, "important</w>": 92, "incidence</w>": 93, "including</w>": 94, "increased</w>": 95, "infection</w>": 96, "long-term</w>": 97, "malignant</w>": 98, "morbidity</w>": 99, "mortality</w>": 100, "occlusion</w>": 101, "operation</w>": 102, "operative</w>": 103, "patients)</w>": 104, "performed</w>": 105, "perfusion</w>": 106, "placement</w>": 107, "potential</w>": 108, "presented</w>": 109, "procedure</w>": 110, "pulmonary</w>": 111, "radiation</w>": 112, "receiving</w>": 113, "recurrent</w>": 114, "reduction</w>": 115, "resection</w>": 116, "resonance</w>": 117, "responses</w>": 118, "secondary</w>": 119, "specimens</w>": 120, "struction</w>": 121, "technique</w>": 122, "treatment</w>": 123, "underwent</w>": 124, "-induced</w>": 125, "abnormal</w>": 126, "activity</w>": 127, "addition</w>": 128, "although</w>": 129, "analysis</w>": 130, "antation</w>": 131, "anterior</w>": 132, "antibody</w>": 133, "approach</w>": 134, "arterial</w>": 135, "arteries</w>": 136, "assessed</w>": 137, "bleeding</w>": 138, "cerebral</w>": 139, "children</w>": 140, "clinical</w>": 141, "combined</w>": 142, "compared</w>": 143, "complete</w>": 144, "conclude</w>": 145, "contrast</w>": 146, "controls</w>": 147, "coronary</w>": 148, "decrease</w>": 149, "detected</w>": 150, "duration</w>": 151, "efficacy</w>": 152, "elective</w>": 153, "elevated</w>": 154, "entation</w>": 155, "evidence</w>": 156, "examined</w>": 157, "exercise</w>": 158, "features</w>": 159, "fication</w>": 160, "findings</w>": 161, "followed</w>": 162, "function</w>": 163, "hospital</w>": 164, "improved</w>": 165, "included</w>": 166, "increase</w>": 167, "indicate</w>": 168, "infusion</w>": 169, "interval</w>": 170, "invasive</w>": 171, "ischemia</w>": 172, "ischemic</w>": 173, "leukemia</w>": 174, "magnetic</w>": 175, "measured</w>": 176, "multiple</w>": 177, "negative</w>": 178, "observed</w>": 179, "obtained</w>": 180, "occurred</w>": 181, "ographic</w>": 182, "ological</w>": 183, "otherapy</w>": 184, "patients</w>": 185, "positive</w>": 186, "possible</w>": 187, "presence</w>": 188, "pression</w>": 189, "pressure</w>": 190, "previous</w>": 191, "received</w>": 192, "receptor</w>": 193, "relative</w>": 194, "reported</w>": 195, "required</w>": 196, "response</w>": 197, "revealed</w>": 198, "reviewed</w>": 199, "severity</w>": 200, "specific</w>": 201, "spective</w>": 202, "standard</w>": 203, "stenosis</w>": 204, "subjects</w>": 205, "surgical</w>": 206, "survival</w>": 207, "symptoms</w>": 208, "syndrome</w>": 209, "systemic</w>": 210, "systolic</w>": 211, "utaneous</w>": 212, "vascular</w>": 213, "ability</w>": 214, "alities</w>": 215, "animals</w>": 216, "antigen</w>": 217, "atively</w>": 218, "authors</w>": 219, "average</w>": 220, "balloon</w>": 221, "because</w>": 222, "between</w>": 223, "bladder</w>": 224, "calcium</w>": 225, "cardiac</w>": 226, "carotid</w>": 227, "central</w>": 228, "changes</w>": 229, "characteris": 230, "chronic</w>": 231, "clusion</w>": 232, "control</w>": 233, "disease</w>": 234, "duction</w>": 235, "effects</w>": 236, "ellular</w>": 237, "factors</w>": 238, "failure</w>": 239, "further</w>": 240, "gastric</w>": 241, "greater</w>": 242, "hepatic</w>": 243, "history</w>": 244, "however</w>": 245, "iciency</w>": 246, "imaging</w>": 247, "ination</w>": 248, "induced</w>": 249, "infants</w>": 250, "initial</w>": 251, "iratory</w>": 252, "istered</w>": 253, "itation</w>": 254, "ization</w>": 255, "lesions</w>": 256, "medical</w>": 257, "methods</w>": 258, "minutes</w>": 259, "mission</w>": 260, "ography</w>": 261, "oplasty</w>": 262, "outcome</w>": 263, "overall</w>": 264, "patient</w>": 265, "pattern</w>": 266, "percent</w>": 267, "placebo</w>": 268, "present</w>": 269, "pressed</w>": 270, "primary</w>": 271, "protein</w>": 272, "reduced</w>": 273, "related</w>": 274, "results</w>": 275, "several</w>": 276, "similar</w>": 277, "studied</w>": 278, "studies</w>": 279, "suggest</w>": 280, "surgery</w>": 281, "therapy</w>": 282, "through</w>": 283, "tically</w>": 284, "treated</w>": 285, "ulation</w>": 286, "vention</w>": 287, "whereas</w>": 288, "whether</w>": 289, "without</w>": 290, "action</w>": 291, "active</w>": 292, "agents</w>": 293, "alized</w>": 294, "aneous</w>": 295, "aortic</w>": 296, "artery</w>": 297, "ateral</w>": 298, "ations</w>": 299, "atrial</w>": 300, "atures</w>": 301, "before</w>": 302, "biopsy</w>": 303, "bodies</w>": 304, "breast</w>": 305, "bypass</w>": 306, "cancer</w>": 307, "cardia</w>": 308, "caused</w>": 309, "change</w>": 310, "common</w>": 311, "course</w>": 312, "differenti": 313, "during</w>": 314, "ection</w>": 315, "ectomy</w>": 316, "effect</w>": 317, "either</w>": 318, "ential</w>": 319, "esting</w>": 320, "factor</w>": 321, "groups</w>": 322, "growth</w>": 323, "higher</w>": 324, "ically</w>": 325, "idence</w>": 326, "injury</w>": 327, "lesion</w>": 328, "levels</w>": 329, "likely</w>": 330, "median</w>": 331, "method</w>": 332, "mitral</w>": 333, "monary</w>": 334, "months</w>": 335, "muscle</w>": 336, "normal</w>": 337, "number</w>": 338, "ocytes</w>": 339, "ologic</w>": 340, "opathy</w>": 341, "period</w>": 342, "plasma</w>": 343, "rectal</w>": 344, "relationsh": 345, "report</w>": 346, "result</w>": 347, "review</w>": 348, "second</w>": 349, "severe</w>": 350, "should</w>": 351, "showed</w>": 352, "single</w>": 353, "spinal</w>": 354, "status</w>": 355, "stroke</w>": 356, "system</w>": 357, "tained</w>": 358, "thesis</w>": 359, "tional</w>": 360, "tissue</w>": 361, "tively</w>": 362, "tivity</w>": 363, "tumors</w>": 364, "useful</w>": 365, "values</w>": 366, "vement</w>": 367, "venous</w>": 368, "versus</w>": 369, "volume</w>": 370, "weight</w>": 371, "within</w>": 372, "(mean</w>": 373, "acute</w>": 374, "administr": 375, "after</w>": 376, "ality</w>": 377, "alone</w>": 378, "alpha</w>": 379, "amine</w>": 380, "among</w>": 381, "anced</w>": 382, "ances</w>": 383, "anial</w>": 384, "antly</w>": 385, "asing</w>": 386, "ately</w>": 387, "ating</w>": 388, "ation</w>": 389, "ative</w>": 390, "atory</w>": 391, "ature</w>": 392, "based</w>": 393, "blood</w>": 394, "brain</w>": 395, "cases</w>": 396, "cause</w>": 397, "cells</w>": 398, "character": 399, "chest</w>": 400, "cholester": 401, "could</w>": 402, "death</w>": 403, "dered</w>": 404, "drugs</w>": 405, "duced</w>": 406, "early</w>": 407, "echocardi": 408, "ected</w>": 409, "eding</w>": 410, "eight</w>": 411, "elial</w>": 412, "ement</w>": 413, "ening</w>": 414, "ental</w>": 415, "ented</w>": 416, "ently</w>": 417, "equal</w>": 418, "erior</w>": 419, "ether</w>": 420, "first</w>": 421, "fluid</w>": 422, "found</w>": 423, "given</w>": 424, "going</w>": 425, "grade</w>": 426, "graft</w>": 427, "group</w>": 428, "heart</w>": 429, "hemodynam": 430, "hours</w>": 431, "human</w>": 432, "icity</w>": 433, "idity</w>": 434, "ility</w>": 435, "imens</w>": 436, "inant</w>": 437, "inary</w>": 438, "index</w>": 439, "ining</w>": 440, "ished</w>": 441, "ither</w>": 442, "ities</w>": 443, "known</w>": 444, "large</w>": 445, "least</w>": 446, "level</w>": 447, "liver</w>": 448, "local</w>": 449, "lower</w>": 450, "major</w>": 451, "ments</w>": 452, "model</w>": 453, "nerve</w>": 454, "nosis</w>": 455, "often</w>": 456, "olism</w>": 457, "ology</w>": 458, "onary</w>": 459, "onset</w>": 460, "oring</w>": 461, "other</w>": 462, "otomy</w>": 463, "ously</w>": 464, "pared</w>": 465, "phase</w>": 466, "range</w>": 467, "rates</w>": 468, "ratio</w>": 469, "renal</w>": 470, "right</w>": 471, "rosis</w>": 472, "serum</w>": 473, "seven</w>": 474, "shown</w>": 475, "sible</w>": 476, "sions</w>": 477, "small</w>": 478, "stage</w>": 479, "study</w>": 480, "their</w>": 481, "there</w>": 482, "these</w>": 483, "those</w>": 484, "three</w>": 485, "tical</w>": 486, "times</w>": 487, "tinal</w>": 488, "tions</w>": 489, "total</w>": 490, "trial</w>": 491, "tumor</w>": 492, "ulcer</w>": 493, "using</w>": 494, "usion</w>": 495, "ution</w>": 496, "value</w>": 497, "valve</w>": 498, "verse</w>": 499, "virus</w>": 500, "weeks</w>": 501, "which</w>": 502, "while</w>": 503, "women</w>": 504, "ximal</w>": 505, "years</w>": 506, "-old</w>": 507, "001)</w>": 508, "able</w>": 509, "ably</w>": 510, "acid</w>": 511, "aged</w>": 512, "ages</w>": 513, "aled</w>": 514, "ally</w>": 515, "also</w>": 516, "ance</w>": 517, "ancy</w>": 518, "ants</w>": 519, "area</w>": 520, "ased</w>": 521, "ases</w>": 522, "asis</w>": 523, "atal</w>": 524, "ated</w>": 525, "ater</w>": 526, "ates</w>": 527, "atic</w>": 528, "atus</w>": 529, "ause</w>": 530, "been</w>": 531, "body</w>": 532, "bone</w>": 533, "both</w>": 534, "bral</w>": 535, "care</w>": 536, "case</w>": 537, "cell</w>": 538, "cent</w>": 539, "comparis": 540, "concentr": 541, "data</w>": 542, "days</w>": 543, "demonstr": 544, "ders</w>": 545, "determin": 546, "died</w>": 547, "differen": 548, "ding</w>": 549, "dose</w>": 550, "drug</w>": 551, "duce</w>": 552, "each</w>": 553, "ects</w>": 554, "emia</w>": 555, "emic</w>": 556, "ence</w>": 557, "ency</w>": 558, "endoscop": 559, "ents</w>": 560, "eral</w>": 561, "ered</w>": 562, "etal</w>": 563, "etic</w>": 564, "eved</w>": 565, "ever</w>": 566, "face</w>": 567, "fied</w>": 568, "five</w>": 569, "flow</w>": 570, "fore</w>": 571, "four</w>": 572, "free</w>": 573, "from</w>": 574, "gene</w>": 575, "have</w>": 576, "high</w>": 577, "hyperten": 578, "iary</w>": 579, "ical</w>": 580, "ific</w>": 581, "ight</w>": 582, "inal</w>": 583, "ined</w>": 584, "ings</w>": 585, "into</w>": 586, "investig": 587, "ired</w>": 588, "ised</w>": 589, "isms</w>": 590, "ital</w>": 591, "ited</w>": 592, "itis</w>": 593, "ized</w>": 594, "king</w>": 595, "late</w>": 596, "left</w>": 597, "less</w>": 598, "line</w>": 599, "lled</w>": 600, "loss</w>": 601, "lung</w>": 602, "many</w>": 603, "mass</w>": 604, "mean</w>": 605, "ment</w>": 606, "mice</w>": 607, "mine</w>": 608, "more</w>": 609, "most</w>": 610, "myocardi": 611, "ness</w>": 612, "neurolog": 613, "nine</w>": 614, "ning</w>": 615, "olic</w>": 616, "omas</w>": 617, "onal</w>": 618, "ones</w>": 619, "onic</w>": 620, "only</w>": 621, "oral</w>": 622, "osis</w>": 623, "otic</w>": 624, "otid</w>": 625, "ough</w>": 626, "ound</w>": 627, "over</w>": 628, "pain</w>": 629, "prolifer": 630, "rate</w>": 631, "rats</w>": 632, "recurren": 633, "relation": 634, "rent</w>": 635, "rest</w>": 636, "rine</w>": 637, "risk</w>": 638, "role</w>": 639, "same</w>": 640, "seen</w>": 641, "side</w>": 642, "signific": 643, "sion</w>": 644, "site</w>": 645, "sive</w>": 646, "size</w>": 647, "skin</w>": 648, "some</w>": 649, "sual</w>": 650, "such</w>": 651, "sure</w>": 652, "tain</w>": 653, "take</w>": 654, "techniqu": 655, "teen</w>": 656, "tent</w>": 657, "term</w>": 658, "tern</w>": 659, "ters</w>": 660, "test</w>": 661, "than</w>": 662, "that</w>": 663, "ther</w>": 664, "therapeu": 665, "they</w>": 666, "this</w>": 667, "thus</w>": 668, "tial</w>": 669, "tics</w>": 670, "time</w>": 671, "tine</w>": 672, "ting</w>": 673, "tion</w>": 674, "tive</w>": 675, "tomy</w>": 676, "tric</w>": 677, "ture</w>": 678, "type</w>": 679, "ular</w>": 680, "ural</w>": 681, "ured</w>": 682, "ures</w>": 683, "used</w>": 684, "uses</w>": 685, "uted</w>": 686, "utes</w>": 687, "vein</w>": 688, "vely</w>": 689, "ving</w>": 690, "wall</w>": 691, "well</w>": 692, "went</w>": 693, "were</w>": 694, "when</w>": 695, "whom</w>": 696, "with</w>": 697, "year</w>": 698, "ying</w>": 699, "ysis</w>": 700, "+/-</w>": 701, "-up</w>": 702, "0%)</w>": 703, "01)</w>": 704, "05)</w>": 705, "100</w>": 706, "3%)</w>": 707, "5%)</w>": 708, "ach</w>": 709, "act</w>": 710, "acy</w>": 711, "ade</w>": 712, "age</w>": 713, "ain</w>": 714, "ale</w>": 715, "all</w>": 716, "als</w>": 717, "and</w>": 718, "ane</w>": 719, "aneurys": 720, "ans</w>": 721, "ant</w>": 722, "any</w>": 723, "ard</w>": 724, "are</w>": 725, "arrhyth": 726, "ary</w>": 727, "ase</w>": 728, "ass</w>": 729, "ast</w>": 730, "ata</w>": 731, "ate</w>": 732, "ath</w>": 733, "but</w>": 734, "cal</w>": 735, "can</w>": 736, "ces</w>": 737, "cle</w>": 738, "complic": 739, "conclud": 740, "consecu": 741, "consist": 742, "continu": 743, "day</w>": 744, "ded</w>": 745, "der</w>": 746, "describ": 747, "develop": 748, "diagnos": 749, "did</w>": 750, "distrib": 751, "dna</w>": 752, "due</w>": 753, "eal</w>": 754, "ear</w>": 755, "ect</w>": 756, "een</w>": 757, "electro": 758, "ell</w>": 759, "els</w>": 760, "ely</w>": 761, "ema</w>": 762, "ems</w>": 763, "end</w>": 764, "ens</w>": 765, "ent</w>": 766, "ere</w>": 767, "ers</w>": 768, "ery</w>": 769, "es)</w>": 770, "ese</w>": 771, "esophag": 772, "ess</w>": 773, "est</w>": 774, "ety</w>": 775, "experim": 776, "for</w>": 777, "ful</w>": 778, "gen</w>": 779, "had</w>": 780, "has</w>": 781, "hemorrh": 782, "ial</w>": 783, "ice</w>": 784, "ich</w>": 785, "ide</w>": 786, "ids</w>": 787, "ied</w>": 788, "ies</w>": 789, "igh</w>": 790, "ign</w>": 791, "ile</w>": 792, "ill</w>": 793, "ily</w>": 794, "ina</w>": 795, "individ": 796, "ine</w>": 797, "inflamm": 798, "ing</w>": 799, "inhibit": 800, "ins</w>": 801, "ion</w>": 802, "ior</w>": 803, "ise</w>": 804, "ism</w>": 805, "ist</w>": 806, "ite</w>": 807, "its</w>": 808, "ity</w>": 809, "ive</w>": 810, "ked</w>": 811, "low</w>": 812, "may</w>": 813, "measure": 814, "med</w>": 815, "men</w>": 816, "min</w>": 817, "nal</w>": 818, "neoplas": 819, "new</w>": 820, "not</w>": 821, "ods</w>": 822, "oid</w>": 823, "old</w>": 824, "ole</w>": 825, "oma</w>": 826, "ome</w>": 827, "omy</w>": 828, "one</w>": 829, "ong</w>": 830, "ons</w>": 831, "ors</w>": 832, "ory</w>": 833, "ose</w>": 834, "ost</w>": 835, "oth</w>": 836, "our</w>": 837, "ous</w>": 838, "out</w>": 839, "patient": 840, "per</w>": 841, "percent": 842, "perform": 843, "periton": 844, "persist": 845, "ple</w>": 846, "progres": 847, "ral</w>": 848, "ram</w>": 849, "recover": 850, "red</w>": 851, "ree</w>": 852, "ren</w>": 853, "res</w>": 854, "sed</w>": 855, "ses</w>": 856, "set</w>": 857, "sia</w>": 858, "sis</w>": 859, "six</w>": 860, "subsequ": 861, "success": 862, "suggest": 863, "sus</w>": 864, "symptom": 865, "syndrom": 866, "tal</w>": 867, "ted</w>": 868, "ten</w>": 869, "ter</w>": 870, "the</w>": 871, "tic</w>": 872, "tis</w>": 873, "tly</w>": 874, "transpl": 875, "two</w>": 876, "ual</w>": 877, "uld</w>": 878, "ure</w>": 879, "urs</w>": 880, "use</w>": 881, "ute</w>": 882, "val</w>": 883, "ved</w>": 884, "vel</w>": 885, "ventric": 886, "ves</w>": 887, "was</w>": 888, "who</w>": 889, "zed</w>": 890, "%)</w>": 891, "'s</w>": 892, "(0</w>": 893, "(n</w>": 894, "(p</w>": 895, "-1</w>": 896, "0%</w>": 897, "00</w>": 898, "1%</w>": 899, "1)</w>": 900, "10</w>": 901, "11</w>": 902, "12</w>": 903, "13</w>": 904, "14</w>": 905, "15</w>": 906, "16</w>": 907, "17</w>": 908, "18</w>": 909, "19</w>": 910, "2%</w>": 911, "2)</w>": 912, "20</w>": 913, "21</w>": 914, "22</w>": 915, "23</w>": 916, "24</w>": 917, "25</w>": 918, "26</w>": 919, "28</w>": 920, "3%</w>": 921, "3)</w>": 922, "30</w>": 923, "4%</w>": 924, "4)</w>": 925, "40</w>": 926, "5%</w>": 927, "5)</w>": 928, "50</w>": 929, "6%</w>": 930, "6)</w>": 931, "60</w>": 932, "7%</w>": 933, "7)</w>": 934, "8%</w>": 935, "8)</w>": 936, "9%</w>": 937, "a)</w>": 938, "abnorm": 939, "ac</w>": 940, "ad</w>": 941, "al</w>": 942, "an</w>": 943, "appear": 944, "ar</w>": 945, "as</w>": 946, "assess": 947, "associ": 948, "at</w>": 949, "ay</w>": 950, "be</w>": 951, "bo</w>": 952, "by</w>": 953, "carcin": 954, "ce</w>": 955, "ch</w>": 956, "cirrho": 957, "classi": 958, "compar": 959, "comple": 960, "confir": 961, "contin": 962, "contro": 963, "correl": 964, "ct</w>": 965, "d)</w>": 966, "de</w>": 967, "depend": 968, "discus": 969, "distin": 970, "ds</w>": 971, "e)</w>": 972, "ed</w>": 973, "em</w>": 974, "en</w>": 975, "entric": 976, "ep</w>": 977, "episod": 978, "er</w>": 979, "es</w>": 980, "establ": 981, "et</w>": 982, "experi": 983, "extrac": 984, "follow": 985, "ft</w>": 986, "g)</w>": 987, "gastro": 988, "gh</w>": 989, "gs</w>": 990, "hepati": 991, "hg</w>": 992, "hospit": 993, "ia</w>": 994, "ic</w>": 995, "id</w>": 996, "identi": 997, "if</w>": 998, "ii</w>": 999, "il</w>": 1000, "immuno": 1001, "import": 1002, "improv": 1003, "in</w>": 1004, "includ": 1005, "infarc": 1006, "intrac": 1007, "ip</w>": 1008, "ir</w>": 1009, "is</w>": 1010, "ischem": 1011, "it</w>": 1012, "ke</w>": 1013, "ks</w>": 1014, "l)</w>": 1015, "le</w>": 1016, "ls</w>": 1017, "ly</w>": 1018, "ma</w>": 1019, "malign": 1020, "mechan": 1021, "metast": 1022, "mg</w>": 1023, "ml</w>": 1024, "mm</w>": 1025, "ms</w>": 1026, "na</w>": 1027, "no</w>": 1028, "ocardi": 1029, "od</w>": 1030, "odynam": 1031, "of</w>": 1032, "ograph": 1033, "ol</w>": 1034, "om</w>": 1035, "on</w>": 1036, "or</w>": 1037, "outcom": 1038, "pancre": 1039, "partic": 1040, "periph": 1041, "ph</w>": 1042, "phosph": 1043, "platel": 1044, "predic": 1045, "preval": 1046, "proced": 1047, "produc": 1048, "provid": 1049, "ps</w>": 1050, "quanti": 1051, "random": 1052, "receiv": 1053, "recept": 1054, "remain": 1055, "resist": 1056, "respec": 1057, "respon": 1058, "review": 1059, "ro</w>": 1060, "s)</w>": 1061, "se</w>": 1062, "second": 1063, "so</w>": 1064, "st</w>": 1065, "statis": 1066, "stimul": 1067, "subjec": 1068, "suppor": 1069, "surviv": 1070, "sy</w>": 1071, "t)</w>": 1072, "ta</w>": 1073, "te</w>": 1074, "th</w>": 1075, "therap": 1076, "thromb": 1077, "to</w>": 1078, "transi": 1079, "ts</w>": 1080, "ty</w>": 1081, "ultras": 1082, "um</w>": 1083, "up</w>": 1084, "us</w>": 1085, "ut</w>": 1086, "ve</w>": 1087, "vs</w>": 1088, "we</w>": 1089, "wn</w>": 1090, "y)</w>": 1091, "ys</w>": 1092, "ze</w>": 1093, "abdom": 1094, "accur": 1095, "acter": 1096, "activ": 1097, "admin": 1098, "analy": 1099, "aneur": 1100, "anter": 1101, "anti-": 1102, "appro": 1103, "arcom": 1104, "arter": 1105, "aspir": 1106, "ation": 1107, "avail": 1108, "ballo": 1109, "calci": 1110, "cardi": 1111, "cathe": 1112, "centr": 1113, "chang": 1114, "child": 1115, "chrom": 1116, "compl": 1117, "condi": 1118, "consi": 1119, "contr": 1120, "death": 1121, "decre": 1122, "descr": 1123, "deter": 1124, "devel": 1125, "diagn": 1126, "diast": 1127, "direc": 1128, "disor": 1129, "distr": 1130, "divid": 1131, "echan": 1132, "effec": 1133, "effic": 1134, "enter": 1135, "ephal": 1136, "epith": 1137, "ester": 1138, "esthe": 1139, "evalu": 1140, "exerc": 1141, "expos": 1142, "exten": 1143, "fract": 1144, "frequ": 1145, "gener": 1146, "hemat": 1147, "hepat": 1148, "high-": 1149, "hydro": 1150, "hyper": 1151, "immun": 1152, "impro": 1153, "incre": 1154, "indic": 1155, "infec": 1156, "influ": 1157, "inhib": 1158, "initi": 1159, "injur": 1160, "insul": 1161, "inten": 1162, "inter": 1163, "intes": 1164, "intra": 1165, "invas": 1166, "inves": 1167, "invol": 1168, "level": 1169, "lifer": 1170, "liter": 1171, "long-": 1172, "lymph": 1173, "magne": 1174, "manag": 1175, "medic": 1176, "melan": 1177, "membr": 1178, "metab": 1179, "micro": 1180, "minim": 1181, "moder": 1182, "monit": 1183, "month": 1184, "morph": 1185, "mucos": 1186, "multi": 1187, "neuro": 1188, "nucle": 1189, "obser": 1190, "occur": 1191, "ochem": 1192, "ogene": 1193, "onstr": 1194, "opath": 1195, "ophag": 1196, "oplas": 1197, "oscop": 1198, "paren": 1199, "perim": 1200, "physi": 1201, "place": 1202, "pregn": 1203, "previ": 1204, "prost": 1205, "prote": 1206, "psych": 1207, "recog": 1208, "recor": 1209, "recur": 1210, "repor": 1211, "reson": 1212, "resul": 1213, "retro": 1214, "revie": 1215, "sampl": 1216, "secon": 1217, "sensi": 1218, "sever": 1219, "simil": 1220, "spont": 1221, "stand": 1222, "stres": 1223, "stric": 1224, "struc": 1225, "studi": 1226, "tachy": 1227, "there": 1228, "throm": 1229, "throu": 1230, "tissu": 1231, "trans": 1232, "traum": 1233, "treat": 1234, "twent": 1235, "under": 1236, "venti": 1237, "volum": 1238, "where": 1239, "achi": 1240, "addi": 1241, "aden": 1242, "adul": 1243, "agon": 1244, "alco": 1245, "allo": 1246, "alph": 1247, "alth": 1248, "amin": 1249, "anal": 1250, "angi": 1251, "anim": 1252, "anti": 1253, "ardi": 1254, "aryn": 1255, "assi": 1256, "atin": 1257, "atis": 1258, "auth": 1259, "aver": 1260, "bene": 1261, "betw": 1262, "biop": 1263, "blad": 1264, "bloc": 1265, "bodi": 1266, "canc": 1267, "cell": 1268, "cent": 1269, "cere": 1270, "char": 1271, "chem": 1272, "chil": 1273, "chol": 1274, "circ": 1275, "cler": 1276, "clin": 1277, "clos": 1278, "clud": 1279, "coll": 1280, "comb": 1281, "comm": 1282, "comp": 1283, "conf": 1284, "coun": 1285, "cour": 1286, "diab": 1287, "diag": 1288, "diff": 1289, "dise": 1290, "dist": 1291, "elec": 1292, "elev": 1293, "enti": 1294, "entr": 1295, "epid": 1296, "epis": 1297, "epti": 1298, "eren": 1299, "exam": 1300, "exer": 1301, "fact": 1302, "fail": 1303, "fibr": 1304, "find": 1305, "form": 1306, "func": 1307, "gluc": 1308, "graf": 1309, "gram": 1310, "gran": 1311, "grou": 1312, "grow": 1313, "heal": 1314, "hear": 1315, "high": 1316, "hist": 1317, "horm": 1318, "hypo": 1319, "hyth": 1320, "ific": 1321, "imag": 1322, "impa": 1323, "impl": 1324, "inde": 1325, "infl": 1326, "intr": 1327, "isol": 1328, "istr": 1329, "iter": 1330, "iton": 1331, "larg": 1332, "leuk": 1333, "long": 1334, "main": 1335, "mark": 1336, "meas": 1337, "medi": 1338, "meth": 1339, "mode": 1340, "morb": 1341, "mort": 1342, "myel": 1343, "need": 1344, "niqu": 1345, "non-": 1346, "norm": 1347, "numb": 1348, "ocyt": 1349, "oden": 1350, "ogen": 1351, "olog": 1352, "omat": 1353, "oper": 1354, "orac": 1355, "orig": 1356, "orrh": 1357, "osph": 1358, "over": 1359, "path": 1360, "pati": 1361, "perc": 1362, "perf": 1363, "peri": 1364, "phen": 1365, "plac": 1366, "plas": 1367, "plat": 1368, "plic": 1369, "poly": 1370, "port": 1371, "posi": 1372, "post": 1373, "pres": 1374, "prev": 1375, "prim": 1376, "prob": 1377, "proc": 1378, "prog": 1379, "prot": 1380, "prov": 1381, "radi": 1382, "rand": 1383, "rang": 1384, "raph": 1385, "rati": 1386, "rece": 1387, "regi": 1388, "rele": 1389, "reli": 1390, "rema": 1391, "remo": 1392, "repa": 1393, "repe": 1394, "requ": 1395, "resi": 1396, "resp": 1397, "reve": 1398, "roph": 1399, "scop": 1400, "scre": 1401, "secu": 1402, "seiz": 1403, "sequ": 1404, "shor": 1405, "show": 1406, "sign": 1407, "sing": 1408, "sist": 1409, "spec": 1410, "sten": 1411, "ster": 1412, "stim": 1413, "stit": 1414, "stro": 1415, "stud": 1416, "succ": 1417, "suff": 1418, "sugg": 1419, "surg": 1420, "symp": 1421, "synd": 1422, "syst": 1423, "tech": 1424, "tend": 1425, "tern": 1426, "test": 1427, "thal": 1428, "ther": 1429, "thir": 1430, "thro": 1431, "tion": 1432, "trac": 1433, "tran": 1434, "tras": 1435, "ucle": 1436, "ular": 1437, "valu": 1438, "vari": 1439, "vasc": 1440, "with": 1441, "year": 1442, "ynam": 1443, "youn": 1444, "198": 1445, "abl": 1446, "abs": 1447, "acc": 1448, "ach": 1449, "act": 1450, "adj": 1451, "adv": 1452, "aff": 1453, "ail": 1454, "ain": 1455, "all": 1456, "alu": 1457, "ame": 1458, "amm": 1459, "amp": 1460, "anc": 1461, "and": 1462, "ane": 1463, "ang": 1464, "ant": 1465, "aor": 1466, "app": 1467, "arc": 1468, "are": 1469, "arg": 1470, "ari": 1471, "arr": 1472, "asp": 1473, "ass": 1474, "ast": 1475, "ath": 1476, "ati": 1477, "atr": 1478, "aut": 1479, "bac": 1480, "bas": 1481, "bec": 1482, "ben": 1483, "bil": 1484, "ble": 1485, "blo": 1486, "bod": 1487, "bra": 1488, "bre": 1489, "bro": 1490, "byp": 1491, "cal": 1492, "can": 1493, "cap": 1494, "car": 1495, "cat": 1496, "cel": 1497, "cer": 1498, "chr": 1499, "cin": 1500, "cir": 1501, "cle": 1502, "clu": 1503, "col": 1504, "com": 1505, "con": 1506, "cop": 1507, "cor": 1508, "cre": 1509, "cul": 1510, "cur": 1511, "cus": 1512, "cyt": 1513, "dam": 1514, "dec": 1515, "def": 1516, "del": 1517, "dem": 1518, "dep": 1519, "der": 1520, "des": 1521, "det": 1522, "dic": 1523, "dil": 1524, "dip": 1525, "dis": 1526, "doc": 1527, "dom": 1528, "dop": 1529, "dos": 1530, "dou": 1531, "dra": 1532, "dro": 1533, "dru": 1534, "duc": 1535, "dur": 1536, "dys": 1537, "ear": 1538, "ech": 1539, "ect": 1540, "eff": 1541, "eli": 1542, "ell": 1543, "emb": 1544, "enc": 1545, "end": 1546, "eng": 1547, "enh": 1548, "ens": 1549, "ent": 1550, "enz": 1551, "eph": 1552, "ept": 1553, "equ": 1554, "ere": 1555, "erg": 1556, "ess": 1557, "est": 1558, "eth": 1559, "eti": 1560, "exc": 1561, "exp": 1562, "fac": 1563, "fam": 1564, "fem": 1565, "fer": 1566, "fib": 1567, "fic": 1568, "fir": 1569, "flu": 1570, "foc": 1571, "fol": 1572, "for": 1573, "fro": 1574, "ful": 1575, "fur": 1576, "gas": 1577, "gen": 1578, "giv": 1579, "gre": 1580, "gro": 1581, "hel": 1582, "hem": 1583, "hib": 1584, "hos": 1585, "how": 1586, "hum": 1587, "ici": 1588, "idi": 1589, "igh": 1590, "ign": 1591, "il-": 1592, "ile": 1593, "ill": 1594, "in-": 1595, "inc": 1596, "ind": 1597, "inf": 1598, "ing": 1599, "inj": 1600, "int": 1601, "inv": 1602, "ish": 1603, "ist": 1604, "ith": 1605, "iti": 1606, "jec": 1607, "kin": 1608, "kno": 1609, "lab": 1610, "lac": 1611, "las": 1612, "lat": 1613, "leu": 1614, "lif": 1615, "lik": 1616, "lim": 1617, "lin": 1618, "liv": 1619, "lob": 1620, "loc": 1621, "log": 1622, "lon": 1623, "los": 1624, "low": 1625, "lun": 1626, "lym": 1627, "mac": 1628, "mag": 1629, "maj": 1630, "mal": 1631, "man": 1632, "mar": 1633, "mat": 1634, "mel": 1635, "mem": 1636, "men": 1637, "met": 1638, "mg/": 1639, "mic": 1640, "mid": 1641, "mil": 1642, "min": 1643, "mis": 1644, "mit": 1645, "mod": 1646, "mol": 1647, "mon": 1648, "mor": 1649, "mot": 1650, "muc": 1651, "mul": 1652, "mun": 1653, "mus": 1654, "mut": 1655, "nec": 1656, "neg": 1657, "ner": 1658, "nit": 1659, "nod": 1660, "non": 1661, "occ": 1662, "och": 1663, "oci": 1664, "ocy": 1665, "ome": 1666, "omy": 1667, "ont": 1668, "oph": 1669, "org": 1670, "orm": 1671, "oro": 1672, "ost": 1673, "oth": 1674, "oti": 1675, "oun": 1676, "ous": 1677, "out": 1678, "oxy": 1679, "pan": 1680, "par": 1681, "pat": 1682, "pea": 1683, "per": 1684, "phy": 1685, "pit": 1686, "pla": 1687, "ple": 1688, "pol": 1689, "pop": 1690, "por": 1691, "pos": 1692, "pot": 1693, "pre": 1694, "pro": 1695, "psy": 1696, "pul": 1697, "pur": 1698, "rap": 1699, "rat": 1700, "rec": 1701, "reg": 1702, "rel": 1703, "ren": 1704, "res": 1705, "ret": 1706, "rho": 1707, "ris": 1708, "rom": 1709, "ros": 1710, "rup": 1711, "saf": 1712, "sal": 1713, "sam": 1714, "sec": 1715, "seg": 1716, "sel": 1717, "sen": 1718, "sep": 1719, "ser": 1720, "sev": 1721, "sho": 1722, "sib": 1723, "sig": 1724, "sin": 1725, "sit": 1726, "smo": 1727, "sol": 1728, "son": 1729, "sta": 1730, "sti": 1731, "str": 1732, "sub": 1733, "suc": 1734, "sul": 1735, "sup": 1736, "sur": 1737, "syn": 1738, "ta-": 1739, "tac": 1740, "tem": 1741, "ten": 1742, "ter": 1743, "the": 1744, "tic": 1745, "tig": 1746, "til": 1747, "tim": 1748, "tin": 1749, "tis": 1750, "tiv": 1751, "tom": 1752, "tot": 1753, "tox": 1754, "tra": 1755, "tre": 1756, "tri": 1757, "tro": 1758, "tum": 1759, "ty-": 1760, "typ": 1761, "udi": 1762, "ulc": 1763, "umb": 1764, "unc": 1765, "und": 1766, "ure": 1767, "uro": 1768, "use": 1769, "val": 1770, "vas": 1771, "vel": 1772, "ven": 1773, "ver": 1774, "vid": 1775, "vie": 1776, "vir": 1777, "vit": 1778, "viv": 1779, "vol": 1780, "wee": 1781, "wit": 1782, "wom": 1783, "wor": 1784, "xim": 1785, "yro": 1786, "yst": 1787, "(1": 1788, "(2": 1789, "(3": 1790, "(4": 1791, "(5": 1792, "(6": 1793, "(7": 1794, "(8": 1795, "(9": 1796, "(c": 1797, "(p": 1798, "+/": 1799, "--": 1800, "0-": 1801, "00": 1802, "1-": 1803, "10": 1804, "19": 1805, "2-": 1806, "20": 1807, "3-": 1808, "4-": 1809, "5-": 1810, "a-": 1811, "ab": 1812, "ac": 1813, "ad": 1814, "af": 1815, "ag": 1816, "ak": 1817, "al": 1818, "am": 1819, "an": 1820, "ap": 1821, "ar": 1822, "as": 1823, "at": 1824, "au": 1825, "av": 1826, "ax": 1827, "ay": 1828, "az": 1829, "be": 1830, "bi": 1831, "bl": 1832, "bo": 1833, "br": 1834, "c-": 1835, "ca": 1836, "cd": 1837, "ch": 1838, "ci": 1839, "cl": 1840, "co": 1841, "cr": 1842, "cy": 1843, "da": 1844, "de": 1845, "di": 1846, "do": 1847, "dr": 1848, "du": 1849, "e-": 1850, "ec": 1851, "ed": 1852, "eg": 1853, "el": 1854, "em": 1855, "en": 1856, "ep": 1857, "er": 1858, "es": 1859, "et": 1860, "eu": 1861, "ev": 1862, "ex": 1863, "f-": 1864, "fa": 1865, "fe": 1866, "ff": 1867, "fi": 1868, "fl": 1869, "fo": 1870, "fr": 1871, "fu": 1872, "g/": 1873, "gg": 1874, "gh": 1875, "gl": 1876, "gn": 1877, "go": 1878, "gr": 1879, "gu": 1880, "ha": 1881, "he": 1882, "ho": 1883, "hy": 1884, "ib": 1885, "ic": 1886, "id": 1887, "if": 1888, "ig": 1889, "il": 1890, "im": 1891, "in": 1892, "ip": 1893, "ir": 1894, "is": 1895, "it": 1896, "iv": 1897, "iz": 1898, "l-": 1899, "le": 1900, "li": 1901, "ll": 1902, "lo": 1903, "ma": 1904, "me": 1905, "mi": 1906, "mo": 1907, "mp": 1908, "mr": 1909, "my": 1910, "ne": 1911, "ni": 1912, "no": 1913, "o-": 1914, "ob": 1915, "oc": 1916, "od": 1917, "of": 1918, "og": 1919, "ol": 1920, "om": 1921, "on": 1922, "op": 1923, "or": 1924, "os": 1925, "ot": 1926, "ou": 1927, "ov": 1928, "ox": 1929, "pa": 1930, "pe": 1931, "ph": 1932, "pl": 1933, "po": 1934, "pr": 1935, "pt": 1936, "qu": 1937, "ra": 1938, "re": 1939, "rh": 1940, "ro": 1941, "s-": 1942, "s/": 1943, "sc": 1944, "se": 1945, "sh": 1946, "si": 1947, "sk": 1948, "sm": 1949, "so": 1950, "sp": 1951, "st": 1952, "su": 1953, "sy": 1954, "t-": 1955, "ta": 1956, "te": 1957, "th": 1958, "ti": 1959, "to": 1960, "tr": 1961, "tw": 1962, "ub": 1963, "uc": 1964, "ud": 1965, "ul": 1966, "um": 1967, "un": 1968, "up": 1969, "ur": 1970, "us": 1971, "ut": 1972, "ve": 1973, "vi": 1974, "wa": 1975, "we": 1976, "wh": 1977, "y-": 1978, "yl": 1979, "ym": 1980, "yn": 1981, "yp": 1982, "yr": 1983, "ys": 1984, "!": 1985, "#": 1986, "$": 1987, "%": 1988, "&": 1989, "'": 1990, "(": 1991, ")": 1992, "*": 1993, "+": 1994, ",": 1995, "-": 1996, ".": 1997, "/": 1998, "0": 1999, "1": 2000, "2": 2001, "3": 2002, "4": 2003, "5": 2004, "6": 2005, "7": 2006, "8": 2007, "9": 2008, ":": 2009, ";": 2010, "<": 2011, "=": 2012, ">": 2013, "?": 2014, "@": 2015, "\\": 2016, "^": 2017, "_": 2018, "`": 2019, "a": 2020, "b": 2021, "c": 2022, "d": 2023, "e": 2024, "f": 2025, "g": 2026, "h": 2027, "i": 2028, "j": 2029, "k": 2030, "l": 2031, "m": 2032, "n": 2033, "o": 2034, "p": 2035, "q": 2036, "r": 2037, "s": 2038, "t": 2039, "u": 2040, "v": 2041, "w": 2042, "x": 2043, "y": 2044, "z": 2045, "|": 2046, "~": 2047}