{"</PAD>": 0, "</START>": 1, "</w>": 2, "</UNK>": 3, "aboard</w>": 4, "accept</w>": 5, "access</w>": 6, "aching</w>": 7, "across</w>": 8, "acting</w>": 9, "action</w>": 10, "active</w>": 11, "actors</w>": 12, "actual</w>": 13, "adding</w>": 14, "administra": 15, "adults</w>": 16, "advice</w>": 17, "aerial</w>": 18, "affair</w>": 19, "africa</w>": 20, "agency</w>": 21, "agents</w>": 22, "agreed</w>": 23, "albert</w>": 24, "albums</w>": 25, "alfred</w>": 26, "alised</w>": 27, "alists</w>": 28, "alized</w>": 29, "allied</w>": 30, "allies</w>": 31, "alling</w>": 32, "allows</w>": 33, "almost</w>": 34, "alogue</w>": 35, "alties</w>": 36, "always</w>": 37, "amount</w>": 38, "andrew</w>": 39, "animal</w>": 40, "annual</w>": 41, "antine</w>": 42, "anyone</w>": 43, "appeal</w>": 44, "appear</w>": 45, "arctic</w>": 46, "argued</w>": 47, "argues</w>": 48, "armies</w>": 49, "armour</w>": 50, "around</w>": 51, "arrest</w>": 52, "arrive</w>": 53, "arthur</w>": 54, "artist</w>": 55, "asking</w>": 56, "assist</w>": 57, "atedly</w>": 58, "ations</w>": 59, "atives</w>": 60, "atomic</w>": 61, "attack</w>": 62, "attend</w>": 63, "atures</w>": 64, "august</w>": 65, "author</w>": 66, "autumn</w>": 67, "avenue</w>": 68, "awards</w>": 69, "backed</w>": 70, "batman</w>": 71, "battle</w>": 72, "beaten</w>": 73, "beauty</w>": 74, "became</w>": 75, "become</w>": 76, "before</w>": 77, "begins</w>": 78, "behalf</w>": 79, "behind</w>": 80, "belief</w>": 81, "berlin</w>": 82, "better</w>": 83, "beyond</w>": 84, "bility</w>": 85, "bishop</w>": 86, "bition</w>": 87, "blocks</w>": 88, "boards</w>": 89, "bodies</w>": 90, "border</w>": 91, "boston</w>": 92, "bottom</w>": 93, "bought</w>": 94, "bourne</w>": 95, "branch</w>": 96, "brazil</w>": 97, "bridge</w>": 98, "bright</w>": 99, "broken</w>": 100, "bronze</w>": 101, "budget</w>": 102, "bureau</w>": 103, "buried</w>": 104, "burton</w>": 105, "called</w>": 106, "camera</w>": 107, "campus</w>": 108, "canada</w>": 109, "cancer</w>": 110, "cannon</w>": 111, "cannot</w>": 112, "carbon</w>": 113, "career</w>": 114, "carter</w>": 115, "castle</w>": 116, "cation</w>": 117, "caught</w>": 118, "caused</w>": 119, "causes</w>": 120, "cement</w>": 121, "census</w>": 122, "center</w>": 123, "centre</w>": 124, "chance</w>": 125, "change</w>": 126, "chapel</w>": 127, "charge</w>": 128, "charts</w>": 129, "choice</w>": 130, "choose</w>": 131, "chorus</w>": 132, "chosen</w>": 133, "christ</w>": 134, "church</w>": 135, "cially</w>": 136, "cinema</w>": 137, "circle</w>": 138, "cities</w>": 139, "citing</w>": 140, "claims</w>": 141, "closed</w>": 142, "closer</w>": 143, "colony</w>": 144, "colour</w>": 145, "column</w>": 146, "combat</w>": 147, "comedy</w>": 148, "comics</w>": 149, "coming</w>": 150, "commission": 151, "common</w>": 152, "convoy</w>": 153, "cooper</w>": 154, "copies</w>": 155, "corner</w>": 156, "county</w>": 157, "couple</w>": 158, "course</w>": 159, "courts</w>": 160, "covers</w>": 161, "cratic</w>": 162, "create</w>": 163, "credit</w>": 164, "crisis</w>": 165, "critic</w>": 166, "damage</w>": 167, "danger</w>": 168, "daniel</w>": 169, "dating</w>": 170, "dation</w>": 171, "deaths</w>": 172, "debate</w>": 173, "decade</w>": 174, "deemed</w>": 175, "defeat</w>": 176, "defend</w>": 177, "degree</w>": 178, "demand</w>": 179, "denied</w>": 180, "deputy</w>": 181, "dering</w>": 182, "derson</w>": 183, "desert</w>": 184, "design</w>": 185, "desire</w>": 186, "detail</w>": 187, "device</w>": 188, "direct</w>": 189, "disney</w>": 190, "dition</w>": 191, "doctor</w>": 192, "dollar</w>": 193, "donald</w>": 194, "double</w>": 195, "dragon</w>": 196, "driven</w>": 197, "driver</w>": 198, "dubbed</w>": 199, "ducing</w>": 200, "during</w>": 201, "duties</w>": 202, "eafter</w>": 203, "earned</w>": 204, "easily</w>": 205, "ecraft</w>": 206, "ecting</w>": 207, "ection</w>": 208, "ective</w>": 209, "editor</w>": 210, "edward</w>": 211, "effect</w>": 212, "effort</w>": 213, "eighth</w>": 214, "either</w>": 215, "eleven</w>": 216, "elling</w>": 217, "ellite</w>": 218, "ements</w>": 219, "empire</w>": 220, "encies</w>": 221, "encing</w>": 222, "ending</w>": 223, "energy</w>": 224, "engage</w>": 225, "engine</w>": 226, "enough</w>": 227, "ensure</w>": 228, "entary</w>": 229, "enters</w>": 230, "ential</w>": 231, "enting</w>": 232, "ention</w>": 233, "entire</w>": 234, "enture</w>": 235, "ership</w>": 236, "escape</w>": 237, "estate</w>": 238, "ethnic</w>": 239, "etings</w>": 240, "europe</w>": 241, "events</w>": 242, "except</w>": 243, "extent</w>": 244, "facing</w>": 245, "factor</w>": 246, "failed</w>": 247, "fallen</w>": 248, "family</w>": 249, "famous</w>": 250, "faster</w>": 251, "father</w>": 252, "favour</w>": 253, "fellow</w>": 254, "female</w>": 255, "fering</w>": 256, "ferred</w>": 257, "ficial</w>": 258, "fields</w>": 259, "figure</w>": 260, "filled</w>": 261, "filmed</w>": 262, "finale</w>": 263, "finals</w>": 264, "finish</w>": 265, "firing</w>": 266, "fitted</w>": 267, "flight</w>": 268, "flying</w>": 269, "follow</w>": 270, "forced</w>": 271, "forces</w>": 272, "forest</w>": 273, "formal</w>": 274, "format</w>": 275, "formed</w>": 276, "former</w>": 277, "fought</w>": 278, "fourth</w>": 279, "france</w>": 280, "french</w>": 281, "friend</w>": 282, "future</w>": 283, "gained</w>": 284, "garden</w>": 285, "gation</w>": 286, "gender</w>": 287, "george</w>": 288, "german</w>": 289, "ghters</w>": 290, "giants</w>": 291, "giving</w>": 292, "global</w>": 293, "gments</w>": 294, "golden</w>": 295, "gordon</w>": 296, "graded</w>": 297, "graham</w>": 298, "grammy</w>": 299, "grants</w>": 300, "greece</w>": 301, "ground</w>": 302, "groups</w>": 303, "growth</w>": 304, "guards</w>": 305, "guilty</w>": 306, "guitar</w>": 307, "handed</w>": 308, "harbor</w>": 309, "harris</w>": 310, "harvey</w>": 311, "having</w>": 312, "headed</w>": 313, "health</w>": 314, "height</w>": 315, "helped</w>": 316, "hidden</w>": 317, "higher</w>": 318, "highly</w>": 319, "hitler</w>": 320, "hockey</w>": 321, "honour</w>": 322, "horror</w>": 323, "horses</w>": 324, "hosted</w>": 325, "houses</w>": 326, "howard</w>": 327, "humans</w>": 328, "hunter</w>": 329, "ically</w>": 330, "images</w>": 331, "impact</w>": 332, "inches</w>": 333, "income</w>": 334, "indeed</w>": 335, "indian</w>": 336, "indies</w>": 337, "ingham</w>": 338, "inging</w>": 339, "ington</w>": 340, "injury</w>": 341, "inland</w>": 342, "inside</w>": 343, "island</w>": 344, "israel</w>": 345, "issued</w>": 346, "issues</w>": 347, "istics</w>": 348, "itable</w>": 349, "itself</w>": 350, "jected</w>": 351, "jersey</w>": 352, "jewish</w>": 353, "johnny</w>": 354, "joined</w>": 355, "jordan</w>": 356, "joseph</w>": 357, "junior</w>": 358, "kansas</w>": 359, "keeper</w>": 360, "killed</w>": 361, "killer</w>": 362, "knight</w>": 363, "korean</w>": 364, "labour</w>": 365, "lacked</w>": 366, "landed</w>": 367, "larger</w>": 368, "lasted</w>": 369, "lation</w>": 370, "lative</w>": 371, "latter</w>": 372, "launch</w>": 373, "leader</w>": 374, "league</w>": 375, "leaves</w>": 376, "legacy</w>": 377, "legend</w>": 378, "length</w>": 379, "lennon</w>": 380, "leslie</w>": 381, "lesser</w>": 382, "letter</w>": 383, "levels</w>": 384, "lights</w>": 385, "likely</w>": 386, "lining</w>": 387, "linked</w>": 388, "linois</w>": 389, "lished</w>": 390, "listed</w>": 391, "little</w>": 392, "living</w>": 393, "loaded</w>": 394, "london</w>": 395, "longer</w>": 396, "looked</w>": 397, "losing</w>": 398, "losses</w>": 399, "lowest</w>": 400, "lyrics</w>": 401, "lywood</w>": 402, "mainly</w>": 403, "making</w>": 404, "manner</w>": 405, "marily</w>": 406, "marine</w>": 407, "marked</w>": 408, "market</w>": 409, "martin</w>": 410, "master</w>": 411, "mation</w>": 412, "matter</w>": 413, "mature</w>": 414, "medium</w>": 415, "melody</w>": 416, "member</w>": 417, "memory</w>": 418, "mental</w>": 419, "merged</w>": 420, "meters</w>": 421, "method</w>": 422, "metres</w>": 423, "mexico</w>": 424, "middle</w>": 425, "miller</w>": 426, "mining</w>": 427, "minute</w>": 428, "missed</w>": 429, "mitted</w>": 430, "mobile</w>": 431, "models</w>": 432, "modern</w>": 433, "moment</w>": 434, "months</w>": 435, "morgan</w>": 436, "morris</w>": 437, "mostly</w>": 438, "mother</w>": 439, "motion</w>": 440, "movies</w>": 441, "moving</w>": 442, "mulder</w>": 443, "murder</w>": 444, "murphy</w>": 445, "murray</w>": 446, "museum</w>": 447, "muslim</w>": 448, "narrow</w>": 449, "nation</w>": 450, "native</w>": 451, "nature</w>": 452, "nearby</w>": 453, "nearly</w>": 454, "needed</w>": 455, "nelson</w>": 456, "normal</w>": 457, "norman</w>": 458, "norway</w>": 459, "noting</w>": 460, "novels</w>": 461, "number</w>": 462, "object</w>": 463, "obtain</w>": 464, "occurs</w>": 465, "offers</w>": 466, "office</w>": 467, "oldest</w>": 468, "online</w>": 469, "opened</w>": 470, "option</w>": 471, "orange</w>": 472, "orders</w>": 473, "oregon</w>": 474, "origin</w>": 475, "others</w>": 476, "outing</w>": 477, "owners</w>": 478, "oxford</w>": 479, "oxygen</w>": 480, "paired</w>": 481, "palace</w>": 482, "papers</w>": 483, "parish</w>": 484, "parker</w>": 485, "partly</w>": 486, "passed</w>": 487, "passes</w>": 488, "patrol</w>": 489, "peaked</w>": 490, "people</w>": 491, "period</w>": 492, "person</w>": 493, "philip</w>": 494, "picked</w>": 495, "pieces</w>": 496, "pilots</w>": 497, "placed</w>": 498, "places</w>": 499, "planet</w>": 500, "plants</w>": 501, "played</w>": 502, "player</w>": 503, "poetry</w>": 504, "points</w>": 505, "poland</w>": 506, "police</w>": 507, "policy</w>": 508, "polish</w>": 509, "poorly</w>": 510, "porary</w>": 511, "ported</w>": 512, "posing</w>": 513, "posted</w>": 514, "pounds</w>": 515, "powers</w>": 516, "praise</w>": 517, "pretty</w>": 518, "prince</w>": 519, "prison</w>": 520, "proper</w>": 521, "proved</w>": 522, "public</w>": 523, "puerto</w>": 524, "pulled</w>": 525, "pushed</w>": 526, "racing</w>": 527, "raised</w>": 528, "ranean</w>": 529, "ranked</w>": 530, "rarely</w>": 531, "rather</w>": 532, "rating</w>": 533, "ration</w>": 534, "really</w>": 535, "reason</w>": 536, "recent</w>": 537, "record</w>": 538, "reduce</w>": 539, "refers</w>": 540, "reform</w>": 541, "regard</w>": 542, "region</w>": 543, "relief</w>": 544, "remain</w>": 545, "rement</w>": 546, "remove</w>": 547, "repair</w>": 548, "report</w>": 549, "rescue</w>": 550, "result</w>": 551, "return</w>": 552, "review</w>": 553, "revolt</w>": 554, "rhythm</w>": 555, "riders</w>": 556, "riding</w>": 557, "rights</w>": 558, "rising</w>": 559, "rivers</w>": 560, "robert</w>": 561, "rolled</w>": 562, "rought</w>": 563, "rounds</w>": 564, "routes</w>": 565, "ruling</w>": 566, "runner</w>": 567, "russia</w>": 568, "safety</w>": 569, "sailed</w>": 570, "samuel</w>": 571, "saurus</w>": 572, "saying</w>": 573, "scenes</w>": 574, "scheme</w>": 575, "school</w>": 576, "scored</w>": 577, "screen</w>": 578, "script</w>": 579, "scully</w>": 580, "search</w>": 581, "season</w>": 582, "second</w>": 583, "secret</w>": 584, "sector</w>": 585, "secure</w>": 586, "seeing</w>": 587, "seemed</w>": 588, "selves</w>": 589, "senate</w>": 590, "senior</w>": 591, "sequel</w>": 592, "series</w>": 593, "served</w>": 594, "serves</w>": 595, "severe</w>": 596, "sexual</w>": 597, "shakespear": 598, "shaped</w>": 599, "shared</w>": 600, "shells</w>": 601, "shield</w>": 602, "shment</w>": 603, "should</w>": 604, "showed</w>": 605, "signal</w>": 606, "signed</w>": 607, "significan": 608, "silver</w>": 609, "simple</w>": 610, "simply</w>": 611, "singer</w>": 612, "single</w>": 613, "sional</w>": 614, "sister</w>": 615, "sively</w>": 616, "skills</w>": 617, "slaves</w>": 618, "slowly</w>": 619, "smooth</w>": 620, "social</w>": 621, "sought</w>": 622, "sounds</w>": 623, "source</w>": 624, "soviet</w>": 625, "spears</w>": 626, "speech</w>": 627, "sphere</w>": 628, "spider</w>": 629, "spirit</w>": 630, "spoken</w>": 631, "sports</w>": 632, "spread</w>": 633, "spring</w>": 634, "square</w>": 635, "ssions</w>": 636, "stable</w>": 637, "stages</w>": 638, "stance</w>": 639, "stands</w>": 640, "starts</w>": 641, "stated</w>": 642, "states</w>": 643, "statue</w>": 644, "status</w>": 645, "stayed</w>": 646, "stence</w>": 647, "stered</w>": 648, "stones</w>": 649, "stores</w>": 650, "storms</w>": 651, "strate</w>": 652, "stream</w>": 653, "street</w>": 654, "stress</w>": 655, "strike</w>": 656, "string</w>": 657, "strong</w>": 658, "struck</w>": 659, "studio</w>": 660, "styles</w>": 661, "summer</w>": 662, "summit</w>": 663, "sunday</w>": 664, "supply</w>": 665, "survey</w>": 666, "sweden</w>": 667, "sydney</w>": 668, "symbol</w>": 669, "system</w>": 670, "tained</w>": 671, "taking</w>": 672, "talent</w>": 673, "target</w>": 674, "tation</w>": 675, "taught</w>": 676, "taylor</w>": 677, "teenth</w>": 678, "temple</w>": 679, "tenant</w>": 680, "teries</w>": 681, "tering</w>": 682, "tested</w>": 683, "themes</w>": 684, "theory</w>": 685, "thetic</w>": 686, "things</w>": 687, "thirty</w>": 688, "thomas</w>": 689, "though</w>": 690, "threat</w>": 691, "throne</w>": 692, "tially</w>": 693, "timate</w>": 694, "timore</w>": 695, "tional</w>": 696, "tioned</w>": 697, "titled</w>": 698, "titles</w>": 699, "titude</w>": 700, "tively</w>": 701, "tivity</w>": 702, "tories</w>": 703, "toward</w>": 704, "towers</w>": 705, "tracks</w>": 706, "trains</w>": 707, "travel</w>": 708, "treaty</w>": 709, "trials</w>": 710, "tribes</w>": 711, "triple</w>": 712, "troops</w>": 713, "trophy</w>": 714, "trying</w>": 715, "tunnel</w>": 716, "turing</w>": 717, "turned</w>": 718, "turret</w>": 719, "twelve</w>": 720, "twenty</w>": 721, "ulated</w>": 722, "unable</w>": 723, "unique</w>": 724, "united</w>": 725, "unlike</w>": 726, "valent</w>": 727, "valley</w>": 728, "values</w>": 729, "veland</w>": 730, "vement</w>": 731, "veness</w>": 732, "vessel</w>": 733, "victor</w>": 734, "videos</w>": 735, "viewed</w>": 736, "vision</w>": 737, "visual</w>": 738, "vocals</w>": 739, "voiced</w>": 740, "volume</w>": 741, "walker</w>": 742, "walter</w>": 743, "wanted</w>": 744, "warded</w>": 745, "warner</w>": 746, "warren</w>": 747, "waters</w>": 748, "wealth</w>": 749, "weapon</w>": 750, "weekly</w>": 751, "weight</w>": 752, "whilst</w>": 753, "wicket</w>": 754, "widely</w>": 755, "wilson</w>": 756, "window</w>": 757, "winner</w>": 758, "winter</w>": 759, "within</w>": 760, "wooden</w>": 761, "worked</w>": 762, "wright</w>": 763, "writer</w>": 764, "writes</w>": 765, "yellow</w>": 766, "zation</w>": 767, "1920s</w>": 768, "1930s</w>": 769, "1950s</w>": 770, "1960s</w>": 771, "1970s</w>": 772, "1980s</w>": 773, "1990s</w>": 774, "<unk></w>": 775, "abbey</w>": 776, "abled</w>": 777, "about</w>": 778, "above</w>": 779, "accompani": 780, "ached</w>": 781, "acher</w>": 782, "aches</w>": 783, "acres</w>": 784, "acted</w>": 785, "actor</w>": 786, "adams</w>": 787, "added</w>": 788, "ading</w>": 789, "adult</w>": 790, "after</w>": 791, "again</w>": 792, "agent</w>": 793, "aging</w>": 794, "agree</w>": 795, "ahead</w>": 796, "aimed</w>": 797, "aired</w>": 798, "album</w>": 799, "alice</w>": 800, "alien</w>": 801, "aling</w>": 802, "alism</w>": 803, "alist</w>": 804, "ality</w>": 805, "alive</w>": 806, "alled</w>": 807, "allen</w>": 808, "aller</w>": 809, "allow</w>": 810, "alone</w>": 811, "along</w>": 812, "altar</w>": 813, "althy</w>": 814, "ament</w>": 815, "aming</w>": 816, "among</w>": 817, "ances</w>": 818, "ander</w>": 819, "anese</w>": 820, "angel</w>": 821, "angle</w>": 822, "anglo</w>": 823, "anian</w>": 824, "anies</w>": 825, "anime</w>": 826, "anium</w>": 827, "antly</w>": 828, "apart</w>": 829, "apple</w>": 830, "april</w>": 831, "archy</w>": 832, "areas</w>": 833, "arena</w>": 834, "arian</w>": 835, "aries</w>": 836, "arily</w>": 837, "aring</w>": 838, "arity</w>": 839, "armed</w>": 840, "armor</w>": 841, "asian</w>": 842, "aside</w>": 843, "asked</w>": 844, "ately</w>": 845, "athan</w>": 846, "ating</w>": 847, "ation</w>": 848, "ative</w>": 849, "ators</w>": 850, "atory</w>": 851, "attle</w>": 852, "ature</w>": 853, "audio</w>": 854, "avoid</w>": 855, "award</w>": 856, "aware</w>": 857, "backs</w>": 858, "badly</w>": 859, "baker</w>": 860, "bands</w>": 861, "banks</w>": 862, "based</w>": 863, "bases</w>": 864, "basic</w>": 865, "basin</w>": 866, "basis</w>": 867, "battlecru": 868, "beach</w>": 869, "bears</w>": 870, "beats</w>": 871, "began</w>": 872, "begin</w>": 873, "begun</w>": 874, "being</w>": 875, "below</w>": 876, "bered</w>": 877, "berry</w>": 878, "billy</w>": 879, "birds</w>": 880, "birth</w>": 881, "bited</w>": 882, "black</w>": 883, "bling</w>": 884, "block</w>": 885, "blood</w>": 886, "blues</w>": 887, "board</w>": 888, "boats</w>": 889, "bombs</w>": 890, "bones</w>": 891, "bonus</w>": 892, "books</w>": 893, "borne</w>": 894, "bound</w>": 895, "brain</w>": 896, "brand</w>": 897, "break</w>": 898, "breed</w>": 899, "brian</w>": 900, "brick</w>": 901, "brief</w>": 902, "bring</w>": 903, "broad</w>": 904, "broke</w>": 905, "brown</w>": 906, "bruce</w>": 907, "build</w>": 908, "built</w>": 909, "burgh</w>": 910, "cable</w>": 911, "calls</w>": 912, "cally</w>": 913, "canal</w>": 914, "carey</w>": 915, "cargo</w>": 916, "carry</w>": 917, "cases</w>": 918, "catch</w>": 919, "cause</w>": 920, "cells</w>": 921, "chain</w>": 922, "chair</w>": 923, "chant</w>": 924, "character": 925, "chart</w>": 926, "chase</w>": 927, "chell</w>": 928, "chers</w>": 929, "chess</w>": 930, "chief</w>": 931, "child</w>": 932, "china</w>": 933, "ching</w>": 934, "chose</w>": 935, "chris</w>": 936, "cient</w>": 937, "cited</w>": 938, "civil</w>": 939, "claim</w>": 940, "clark</w>": 941, "class</w>": 942, "clean</w>": 943, "clear</w>": 944, "clone</w>": 945, "close</w>": 946, "cloud</w>": 947, "clubs</w>": 948, "coach</w>": 949, "coast</w>": 950, "coins</w>": 951, "color</w>": 952, "comes</w>": 953, "comic</w>": 954, "corps</w>": 955, "correspon": 956, "costs</w>": 957, "could</w>": 958, "count</w>": 959, "court</w>": 960, "cover</w>": 961, "craft</w>": 962, "crash</w>": 963, "creek</w>": 964, "crete</w>": 965, "crews</w>": 966, "crime</w>": 967, "cross</w>": 968, "crowd</w>": 969, "crown</w>": 970, "ction</w>": 971, "cycle</w>": 972, "daily</w>": 973, "dance</w>": 974, "dated</w>": 975, "dates</w>": 976, "david</w>": 977, "davis</w>": 978, "death</w>": 979, "debut</w>": 980, "dence</w>": 981, "dency</w>": 982, "dents</w>": 983, "depth</w>": 984, "dered</w>": 985, "diary</w>": 986, "diego</w>": 987, "dings</w>": 988, "dison</w>": 989, "distingui": 990, "doesn</w>": 991, "doing</w>": 992, "donna</w>": 993, "doors</w>": 994, "doubt</w>": 995, "downs</w>": 996, "draft</w>": 997, "drama</w>": 998, "drawn</w>": 999, "dream</w>": 1000, "dress</w>": 1001, "drive</w>": 1002, "drove</w>": 1003, "drugs</w>": 1004, "drums</w>": 1005, "duced</w>": 1006, "dutch</w>": 1007, "dying</w>": 1008, "dylan</w>": 1009, "eable</w>": 1010, "eagle</w>": 1011, "early</w>": 1012, "earth</w>": 1013, "ected</w>": 1014, "ector</w>": 1015, "eding</w>": 1016, "egypt</w>": 1017, "eight</w>": 1018, "eived</w>": 1019, "eland</w>": 1020, "eless</w>": 1021, "elled</w>": 1022, "ember</w>": 1023, "ement</w>": 1024, "enced</w>": 1025, "ences</w>": 1026, "ended</w>": 1027, "enemy</w>": 1028, "ening</w>": 1029, "ental</w>": 1030, "ented</w>": 1031, "enter</w>": 1032, "entertain": 1033, "enthusias": 1034, "ently</w>": 1035, "entry</w>": 1036, "equal</w>": 1037, "erial</w>": 1038, "ering</w>": 1039, "erous</w>": 1040, "esses</w>": 1041, "essor</w>": 1042, "ested</w>": 1043, "ester</w>": 1044, "etary</w>": 1045, "eties</w>": 1046, "evans</w>": 1047, "event</w>": 1048, "every</w>": 1049, "exist</w>": 1050, "extra</w>": 1051, "faced</w>": 1052, "faces</w>": 1053, "facts</w>": 1054, "faith</w>": 1055, "falls</w>": 1056, "false</w>": 1057, "favor</w>": 1058, "feels</w>": 1059, "fered</w>": 1060, "ferry</w>": 1061, "field</w>": 1062, "fifth</w>": 1063, "fifty</w>": 1064, "fight</w>": 1065, "filed</w>": 1066, "files</w>": 1067, "films</w>": 1068, "final</w>": 1069, "finds</w>": 1070, "fined</w>": 1071, "fired</w>": 1072, "fires</w>": 1073, "first</w>": 1074, "fixed</w>": 1075, "flank</w>": 1076, "fleet</w>": 1077, "flood</w>": 1078, "floor</w>": 1079, "focus</w>": 1080, "force</w>": 1081, "forms</w>": 1082, "forth</w>": 1083, "forts</w>": 1084, "forty</w>": 1085, "found</w>": 1086, "frame</w>": 1087, "frank</w>": 1088, "fresh</w>": 1089, "front</w>": 1090, "fruit</w>": 1091, "fting</w>": 1092, "fully</w>": 1093, "funds</w>": 1094, "funny</w>": 1095, "fying</w>": 1096, "games</w>": 1097, "gates</w>": 1098, "gency</w>": 1099, "genre</w>": 1100, "genus</w>": 1101, "geographi": 1102, "ghter</w>": 1103, "ghtly</w>": 1104, "giant</w>": 1105, "gible</w>": 1106, "girls</w>": 1107, "given</w>": 1108, "gives</w>": 1109, "glass</w>": 1110, "globe</w>": 1111, "gment</w>": 1112, "goals</w>": 1113, "going</w>": 1114, "goods</w>": 1115, "grace</w>": 1116, "grade</w>": 1117, "grams</w>": 1118, "grand</w>": 1119, "grant</w>": 1120, "graph</w>": 1121, "grass</w>": 1122, "grave</w>": 1123, "great</w>": 1124, "greek</w>": 1125, "green</w>": 1126, "group</w>": 1127, "grown</w>": 1128, "guard</w>": 1129, "guest</w>": 1130, "guide</w>": 1131, "gular</w>": 1132, "hands</w>": 1133, "hanna</w>": 1134, "happy</w>": 1135, "harry</w>": 1136, "heads</w>": 1137, "heard</w>": 1138, "heart</w>": 1139, "heavy</w>": 1140, "henry</w>": 1141, "hills</w>": 1142, "hired</w>": 1143, "holds</w>": 1144, "homer</w>": 1145, "homes</w>": 1146, "honor</w>": 1147, "hoped</w>": 1148, "horse</w>": 1149, "hotel</w>": 1150, "hours</w>": 1151, "house</w>": 1152, "human</w>": 1153, "icide</w>": 1154, "ideas</w>": 1155, "ilers</w>": 1156, "iling</w>": 1157, "ility</w>": 1158, "image</w>": 1159, "inder</w>": 1160, "india</w>": 1161, "iness</w>": 1162, "inger</w>": 1163, "ingly</w>": 1164, "inian</w>": 1165, "ining</w>": 1166, "inity</w>": 1167, "inner</w>": 1168, "iring</w>": 1169, "irish</w>": 1170, "isers</w>": 1171, "ising</w>": 1172, "issue</w>": 1173, "istic</w>": 1174, "italy</w>": 1175, "itary</w>": 1176, "items</w>": 1177, "iting</w>": 1178, "itors</w>": 1179, "itted</w>": 1180, "james</w>": 1181, "japan</w>": 1182, "jason</w>": 1183, "jects</w>": 1184, "jesus</w>": 1185, "joint</w>": 1186, "jones</w>": 1187, "judge</w>": 1188, "keith</w>": 1189, "kelly</w>": 1190, "kevin</w>": 1191, "kings</w>": 1192, "kness</w>": 1193, "knots</w>": 1194, "known</w>": 1195, "korea</w>": 1196, "label</w>": 1197, "labor</w>": 1198, "lance</w>": 1199, "lands</w>": 1200, "lanes</w>": 1201, "large</w>": 1202, "lated</w>": 1203, "later</w>": 1204, "latin</w>": 1205, "layer</w>": 1206, "leads</w>": 1207, "learn</w>": 1208, "least</w>": 1209, "leave</w>": 1210, "legal</w>": 1211, "leton</w>": 1212, "level</w>": 1213, "lewis</w>": 1214, "light</w>": 1215, "liked</w>": 1216, "limit</w>": 1217, "lined</w>": 1218, "liner</w>": 1219, "lines</w>": 1220, "lings</w>": 1221, "lions</w>": 1222, "lists</w>": 1223, "lived</w>": 1224, "lives</w>": 1225, "llery</w>": 1226, "local</w>": 1227, "looks</w>": 1228, "lords</w>": 1229, "louis</w>": 1230, "lower</w>": 1231, "lying</w>": 1232, "magic</w>": 1233, "major</w>": 1234, "makes</w>": 1235, "males</w>": 1236, "manga</w>": 1237, "march</w>": 1238, "maria</w>": 1239, "marie</w>": 1240, "mario</w>": 1241, "marks</w>": 1242, "marry</w>": 1243, "match</w>": 1244, "mates</w>": 1245, "matic</w>": 1246, "mayor</w>": 1247, "means</w>": 1248, "meant</w>": 1249, "medal</w>": 1250, "media</w>": 1251, "meets</w>": 1252, "ments</w>": 1253, "metal</w>": 1254, "meter</w>": 1255, "miami</w>": 1256, "might</w>": 1257, "miles</w>": 1258, "mills</w>": 1259, "mines</w>": 1260, "minor</w>": 1261, "mixed</w>": 1262, "model</w>": 1263, "money</w>": 1264, "month</w>": 1265, "moore</w>": 1266, "moral</w>": 1267, "motor</w>": 1268, "mount</w>": 1269, "mouth</w>": 1270, "moved</w>": 1271, "moves</w>": 1272, "movie</w>": 1273, "mpics</w>": 1274, "multi</w>": 1275, "music</w>": 1276, "named</w>": 1277, "names</w>": 1278, "nasty</w>": 1279, "naval</w>": 1280, "needs</w>": 1281, "nered</w>": 1282, "never</w>": 1283, "newly</w>": 1284, "night</w>": 1285, "nings</w>": 1286, "ninth</w>": 1287, "nixon</w>": 1288, "north</w>": 1289, "noted</w>": 1290, "notes</w>": 1291, "novel</w>": 1292, "occur</w>": 1293, "ocean</w>": 1294, "offer</w>": 1295, "often</w>": 1296, "older</w>": 1297, "ology</w>": 1298, "oning</w>": 1299, "onomy</w>": 1300, "opera</w>": 1301, "orbit</w>": 1302, "order</w>": 1303, "organ</w>": 1304, "orial</w>": 1305, "ories</w>": 1306, "ority</w>": 1307, "other</w>": 1308, "ought</w>": 1309, "ounds</w>": 1310, "oured</w>": 1311, "ously</w>": 1312, "outer</w>": 1313, "overs</w>": 1314, "owned</w>": 1315, "owner</w>": 1316, "oxide</w>": 1317, "pages</w>": 1318, "pairs</w>": 1319, "panel</w>": 1320, "paper</w>": 1321, "paris</w>": 1322, "parks</w>": 1323, "parts</w>": 1324, "party</w>": 1325, "peace</w>": 1326, "pearl</w>": 1327, "performan": 1328, "peter</w>": 1329, "phase</w>": 1330, "phone</w>": 1331, "piano</w>": 1332, "pical</w>": 1333, "piece</w>": 1334, "pilot</w>": 1335, "pitch</w>": 1336, "place</w>": 1337, "plain</w>": 1338, "plane</w>": 1339, "plans</w>": 1340, "plant</w>": 1341, "plate</w>": 1342, "plays</w>": 1343, "pment</w>": 1344, "poems</w>": 1345, "point</w>": 1346, "polis</w>": 1347, "ports</w>": 1348, "posed</w>": 1349, "poses</w>": 1350, "power</w>": 1351, "pping</w>": 1352, "press</w>": 1353, "price</w>": 1354, "prime</w>": 1355, "print</w>": 1356, "prior</w>": 1357, "prise</w>": 1358, "prize</w>": 1359, "queen</w>": 1360, "quest</w>": 1361, "quick</w>": 1362, "quite</w>": 1363, "races</w>": 1364, "radar</w>": 1365, "radio</w>": 1366, "raise</w>": 1367, "range</w>": 1368, "ranks</w>": 1369, "rapid</w>": 1370, "rated</w>": 1371, "rates</w>": 1372, "reach</w>": 1373, "ready</w>": 1374, "rease</w>": 1375, "reign</w>": 1376, "remix</w>": 1377, "rence</w>": 1378, "represent": 1379, "riage</w>": 1380, "rical</w>": 1381, "ridge</w>": 1382, "right</w>": 1383, "rings</w>": 1384, "rison</w>": 1385, "rival</w>": 1386, "river</w>": 1387, "roads</w>": 1388, "rocks</w>": 1389, "roger</w>": 1390, "roles</w>": 1391, "roman</w>": 1392, "rooms</w>": 1393, "roots</w>": 1394, "rough</w>": 1395, "round</w>": 1396, "route</w>": 1397, "royal</w>": 1398, "rugby</w>": 1399, "ruled</w>": 1400, "rules</w>": 1401, "rural</w>": 1402, "rying</w>": 1403, "saint</w>": 1404, "salem</w>": 1405, "sales</w>": 1406, "sands</w>": 1407, "santa</w>": 1408, "sarah</w>": 1409, "saved</w>": 1410, "sburg</w>": 1411, "scale</w>": 1412, "scene</w>": 1413, "scent</w>": 1414, "scope</w>": 1415, "score</w>": 1416, "scott</w>": 1417, "seats</w>": 1418, "sects</w>": 1419, "seems</w>": 1420, "sense</w>": 1421, "serve</w>": 1422, "setts</w>": 1423, "seven</w>": 1424, "shall</w>": 1425, "shape</w>": 1426, "share</w>": 1427, "shark</w>": 1428, "sharp</w>": 1429, "shear</w>": 1430, "shell</w>": 1431, "shers</w>": 1432, "shift</w>": 1433, "shing</w>": 1434, "ships</w>": 1435, "shire</w>": 1436, "shock</w>": 1437, "shoot</w>": 1438, "shops</w>": 1439, "shore</w>": 1440, "short</w>": 1441, "shots</w>": 1442, "shown</w>": 1443, "shows</w>": 1444, "sible</w>": 1445, "sides</w>": 1446, "siege</w>": 1447, "sight</w>": 1448, "signs</w>": 1449, "simon</w>": 1450, "simultane": 1451, "since</w>": 1452, "sings</w>": 1453, "sions</w>": 1454, "sites</w>": 1455, "sixth</w>": 1456, "sized</w>": 1457, "skull</w>": 1458, "slave</w>": 1459, "small</w>": 1460, "smith</w>": 1461, "solar</w>": 1462, "solid</w>": 1463, "songs</w>": 1464, "sonic</w>": 1465, "sound</w>": 1466, "souri</w>": 1467, "south</w>": 1468, "space</w>": 1469, "spain</w>": 1470, "speak</w>": 1471, "speed</w>": 1472, "spend</w>": 1473, "spent</w>": 1474, "split</w>": 1475, "spoke</w>": 1476, "sport</w>": 1477, "squad</w>": 1478, "ssell</w>": 1479, "ssing</w>": 1480, "ssion</w>": 1481, "ssive</w>": 1482, "staff</w>": 1483, "stage</w>": 1484, "stand</w>": 1485, "stant</w>": 1486, "stars</w>": 1487, "start</w>": 1488, "state</w>": 1489, "steam</w>": 1490, "steel</w>": 1491, "stein</w>": 1492, "steps</w>": 1493, "stern</w>": 1494, "sters</w>": 1495, "stest</w>": 1496, "steve</w>": 1497, "still</w>": 1498, "sting</w>": 1499, "stock</w>": 1500, "stone</w>": 1501, "stood</w>": 1502, "store</w>": 1503, "storm</w>": 1504, "stors</w>": 1505, "story</w>": 1506, "strip</w>": 1507, "study</w>": 1508, "style</w>": 1509, "sugar</w>": 1510, "sumed</w>": 1511, "super</w>": 1512, "sured</w>": 1513, "sures</w>": 1514, "sweet</w>": 1515, "swift</w>": 1516, "sword</w>": 1517, "table</w>": 1518, "tains</w>": 1519, "taken</w>": 1520, "takes</w>": 1521, "tales</w>": 1522, "tamil</w>": 1523, "tanks</w>": 1524, "teams</w>": 1525, "tedly</w>": 1526, "teeth</w>": 1527, "tells</w>": 1528, "tempo</w>": 1529, "tened</w>": 1530, "tenth</w>": 1531, "tered</w>": 1532, "terms</w>": 1533, "tests</w>": 1534, "texas</w>": 1535, "their</w>": 1536, "theme</w>": 1537, "there</w>": 1538, "thers</w>": 1539, "these</w>": 1540, "thick</w>": 1541, "thing</w>": 1542, "think</w>": 1543, "third</w>": 1544, "those</w>": 1545, "three</w>": 1546, "threw</w>": 1547, "throw</w>": 1548, "tical</w>": 1549, "times</w>": 1550, "tings</w>": 1551, "tions</w>": 1552, "tious</w>": 1553, "title</w>": 1554, "tives</w>": 1555, "tment</w>": 1556, "today</w>": 1557, "tokyo</w>": 1558, "toral</w>": 1559, "total</w>": 1560, "touch</w>": 1561, "tower</w>": 1562, "towns</w>": 1563, "track</w>": 1564, "tract</w>": 1565, "trade</w>": 1566, "trail</w>": 1567, "train</w>": 1568, "trees</w>": 1569, "tress</w>": 1570, "trial</w>": 1571, "tried</w>": 1572, "tries</w>": 1573, "troit</w>": 1574, "trust</w>": 1575, "truth</w>": 1576, "tting</w>": 1577, "tural</w>": 1578, "tured</w>": 1579, "tures</w>": 1580, "turns</w>": 1581, "twice</w>": 1582, "types</w>": 1583, "ulate</w>": 1584, "uncle</w>": 1585, "under</w>": 1586, "union</w>": 1587, "units</w>": 1588, "unity</w>": 1589, "until</w>": 1590, "upper</w>": 1591, "urban</w>": 1592, "uring</w>": 1593, "urity</w>": 1594, "using</w>": 1595, "usual</w>": 1596, "ution</w>": 1597, "valry</w>": 1598, "value</w>": 1599, "venue</w>": 1600, "verse</w>": 1601, "versy</w>": 1602, "vices</w>": 1603, "video</w>": 1604, "views</w>": 1605, "ville</w>": 1606, "vince</w>": 1607, "vised</w>": 1608, "visit</w>": 1609, "vocal</w>": 1610, "voice</w>": 1611, "voted</w>": 1612, "votes</w>": 1613, "wales</w>": 1614, "walls</w>": 1615, "wants</w>": 1616, "wards</w>": 1617, "watch</w>": 1618, "water</w>": 1619, "waves</w>": 1620, "wayne</w>": 1621, "weeks</w>": 1622, "wells</w>": 1623, "welsh</w>": 1624, "where</w>": 1625, "which</w>": 1626, "while</w>": 1627, "white</w>": 1628, "whole</w>": 1629, "whose</w>": 1630, "wider</w>": 1631, "winds</w>": 1632, "wings</w>": 1633, "woman</w>": 1634, "women</w>": 1635, "woods</w>": 1636, "words</w>": 1637, "works</w>": 1638, "world</w>": 1639, "worst</w>": 1640, "worth</w>": 1641, "would</w>": 1642, "write</w>": 1643, "wrong</w>": 1644, "wrote</w>": 1645, "yards</w>": 1646, "years</w>": 1647, "young</w>": 1648, "youth</w>": 1649, "10th</w>": 1650, "11th</w>": 1651, "12th</w>": 1652, "13th</w>": 1653, "14th</w>": 1654, "15th</w>": 1655, "16th</w>": 1656, "17th</w>": 1657, "18th</w>": 1658, "1900</w>": 1659, "1901</w>": 1660, "1902</w>": 1661, "1903</w>": 1662, "1904</w>": 1663, "1905</w>": 1664, "1906</w>": 1665, "1907</w>": 1666, "1908</w>": 1667, "1909</w>": 1668, "1910</w>": 1669, "1911</w>": 1670, "1912</w>": 1671, "1913</w>": 1672, "1914</w>": 1673, "1915</w>": 1674, "1916</w>": 1675, "1917</w>": 1676, "1918</w>": 1677, "1919</w>": 1678, "1920</w>": 1679, "1921</w>": 1680, "1922</w>": 1681, "1923</w>": 1682, "1924</w>": 1683, "1925</w>": 1684, "1926</w>": 1685, "1927</w>": 1686, "1928</w>": 1687, "1929</w>": 1688, "1930</w>": 1689, "1931</w>": 1690, "1932</w>": 1691, "1933</w>": 1692, "1934</w>": 1693, "1935</w>": 1694, "1936</w>": 1695, "1937</w>": 1696, "1938</w>": 1697, "1939</w>": 1698, "1940</w>": 1699, "1941</w>": 1700, "1942</w>": 1701, "1943</w>": 1702, "1944</w>": 1703, "1945</w>": 1704, "1946</w>": 1705, "1947</w>": 1706, "1948</w>": 1707, "1949</w>": 1708, "1950</w>": 1709, "1951</w>": 1710, "1952</w>": 1711, "1953</w>": 1712, "1954</w>": 1713, "1955</w>": 1714, "1956</w>": 1715, "1957</w>": 1716, "1958</w>": 1717, "1959</w>": 1718, "1960</w>": 1719, "1961</w>": 1720, "1962</w>": 1721, "1963</w>": 1722, "1964</w>": 1723, "1965</w>": 1724, "1966</w>": 1725, "1967</w>": 1726, "1968</w>": 1727, "1969</w>": 1728, "1970</w>": 1729, "1971</w>": 1730, "1972</w>": 1731, "1973</w>": 1732, "1974</w>": 1733, "1975</w>": 1734, "1976</w>": 1735, "1977</w>": 1736, "1978</w>": 1737, "1979</w>": 1738, "1980</w>": 1739, "1981</w>": 1740, "1982</w>": 1741, "1983</w>": 1742, "1984</w>": 1743, "1985</w>": 1744, "1986</w>": 1745, "1987</w>": 1746, "1988</w>": 1747, "1989</w>": 1748, "1990</w>": 1749, "1991</w>": 1750, "1992</w>": 1751, "1993</w>": 1752, "1994</w>": 1753, "1995</w>": 1754, "1996</w>": 1755, "1997</w>": 1756, "1998</w>": 1757, "1999</w>": 1758, "19th</w>": 1759, "2000</w>": 1760, "2001</w>": 1761, "2002</w>": 1762, "2003</w>": 1763, "2004</w>": 1764, "2005</w>": 1765, "2006</w>": 1766, "2007</w>": 1767, "2008</w>": 1768, "2009</w>": 1769, "2010</w>": 1770, "2011</w>": 1771, "2012</w>": 1772, "2013</w>": 1773, "2014</w>": 1774, "2015</w>": 1775, "2016</w>": 1776, "20th</w>": 1777, "21st</w>": 1778, "<formula": 1779, "able</w>": 1780, "ably</w>": 1781, "acid</w>": 1782, "acknowle": 1783, "acre</w>": 1784, "acts</w>": 1785, "adam</w>": 1786, "aded</w>": 1787, "ades</w>": 1788, "agan</w>": 1789, "aged</w>": 1790, "ages</w>": 1791, "alan</w>": 1792, "aled</w>": 1793, "ales</w>": 1794, "alex</w>": 1795, "alls</w>": 1796, "ally</w>": 1797, "also</w>": 1798, "alth</w>": 1799, "alty</w>": 1800, "ambassad": 1801, "amed</w>": 1802, "ames</w>": 1803, "ance</w>": 1804, "anda</w>": 1805, "andy</w>": 1806, "ania</w>": 1807, "anna</w>": 1808, "anne</w>": 1809, "anny</w>": 1810, "anti</w>": 1811, "ants</w>": 1812, "appropri": 1813, "approxim": 1814, "arab</w>": 1815, "arch</w>": 1816, "architec": 1817, "ards</w>": 1818, "area</w>": 1819, "ared</w>": 1820, "aria</w>": 1821, "arly</w>": 1822, "arms</w>": 1823, "army</w>": 1824, "arts</w>": 1825, "asia</w>": 1826, "asks</w>": 1827, "ason</w>": 1828, "assassin": 1829, "astronom": 1830, "ated</w>": 1831, "ater</w>": 1832, "ates</w>": 1833, "atic</w>": 1834, "ator</w>": 1835, "atus</w>": 1836, "ault</w>": 1837, "ause</w>": 1838, "australi": 1839, "away</w>": 1840, "baby</w>": 1841, "bach</w>": 1842, "back</w>": 1843, "ball</w>": 1844, "band</w>": 1845, "bank</w>": 1846, "bart</w>": 1847, "base</w>": 1848, "bass</w>": 1849, "bath</w>": 1850, "bbed</w>": 1851, "beam</w>": 1852, "bean</w>": 1853, "bear</w>": 1854, "beat</w>": 1855, "been</w>": 1856, "bell</w>": 1857, "belt</w>": 1858, "berg</w>": 1859, "bers</w>": 1860, "bert</w>": 1861, "best</w>": 1862, "beth</w>": 1863, "bian</w>": 1864, "bile</w>": 1865, "bill</w>": 1866, "bing</w>": 1867, "bird</w>": 1868, "bits</w>": 1869, "bled</w>": 1870, "bles</w>": 1871, "blue</w>": 1872, "boat</w>": 1873, "body</w>": 1874, "bomb</w>": 1875, "bond</w>": 1876, "bone</w>": 1877, "book</w>": 1878, "born</w>": 1879, "both</w>": 1880, "bour</w>": 1881, "bowl</w>": 1882, "boys</w>": 1883, "bros</w>": 1884, "burg</w>": 1885, "burn</w>": 1886, "bury</w>": 1887, "bush</w>": 1888, "cade</w>": 1889, "call</w>": 1890, "came</w>": 1891, "camp</w>": 1892, "cans</w>": 1893, "cape</w>": 1894, "card</w>": 1895, "care</w>": 1896, "carl</w>": 1897, "cars</w>": 1898, "case</w>": 1899, "cast</w>": 1900, "cell</w>": 1901, "cent</w>": 1902, "cept</w>": 1903, "cers</w>": 1904, "cess</w>": 1905, "challeng": 1906, "champion": 1907, "ched</w>": 1908, "chen</w>": 1909, "cher</w>": 1910, "ches</w>": 1911, "christop": 1912, "cial</w>": 1913, "cian</w>": 1914, "cies</w>": 1915, "cing</w>": 1916, "cise</w>": 1917, "city</w>": 1918, "cked</w>": 1919, "cker</w>": 1920, "ckey</w>": 1921, "clay</w>": 1922, "cles</w>": 1923, "club</w>": 1924, "coal</w>": 1925, "coat</w>": 1926, "cock</w>": 1927, "code</w>": 1928, "coin</w>": 1929, "cold</w>": 1930, "collabor": 1931, "come</w>": 1932, "commemor": 1933, "concentr": 1934, "confeder": 1935, "conserva": 1936, "consider": 1937, "constitu": 1938, "construc": 1939, "contribu": 1940, "cook</w>": 1941, "cool</w>": 1942, "copy</w>": 1943, "core</w>": 1944, "cost</w>": 1945, "crew</w>": 1946, "cuba</w>": 1947, "cult</w>": 1948, "dale</w>": 1949, "dant</w>": 1950, "dark</w>": 1951, "dary</w>": 1952, "data</w>": 1953, "date</w>": 1954, "dave</w>": 1955, "days</w>": 1956, "dden</w>": 1957, "dder</w>": 1958, "dead</w>": 1959, "deal</w>": 1960, "dean</w>": 1961, "deck</w>": 1962, "deep</w>": 1963, "dens</w>": 1964, "dent</w>": 1965, "ders</w>": 1966, "dest</w>": 1967, "determin": 1968, "dged</w>": 1969, "dges</w>": 1970, "dian</w>": 1971, "didn</w>": 1972, "died</w>": 1973, "dier</w>": 1974, "dies</w>": 1975, "diet</w>": 1976, "difficul": 1977, "dily</w>": 1978, "ding</w>": 1979, "disc</w>": 1980, "discover": 1981, "dish</w>": 1982, "distribu": 1983, "dium</w>": 1984, "dley</w>": 1985, "dney</w>": 1986, "dock</w>": 1987, "does</w>": 1988, "dogs</w>": 1989, "done</w>": 1990, "door</w>": 1991, "down</w>": 1992, "draw</w>": 1993, "dred</w>": 1994, "drew</w>": 1995, "drop</w>": 1996, "drug</w>": 1997, "drum</w>": 1998, "dson</w>": 1999, "duce</w>": 2000, "duke</w>": 2001, "duty</w>": 2002, "each</w>": 2003, "earl</w>": 2004, "ears</w>": 2005, "earthqua": 2006, "east</w>": 2007, "easy</w>": 2008, "ects</w>": 2009, "eded</w>": 2010, "edge</w>": 2011, "edly</w>": 2012, "eggs</w>": 2013, "eing</w>": 2014, "ella</w>": 2015, "elle</w>": 2016, "else</w>": 2017, "eman</w>": 2018, "emed</w>": 2019, "ence</w>": 2020, "ency</w>": 2021, "ends</w>": 2022, "ened</w>": 2023, "enge</w>": 2024, "enix</w>": 2025, "enth</w>": 2026, "ents</w>": 2027, "enty</w>": 2028, "eous</w>": 2029, "eral</w>": 2030, "ered</w>": 2031, "eric</w>": 2032, "erly</w>": 2033, "ests</w>": 2034, "eter</w>": 2035, "ette</w>": 2036, "eval</w>": 2037, "eved</w>": 2038, "even</w>": 2039, "ever</w>": 2040, "evil</w>": 2041, "exit</w>": 2042, "eyes</w>": 2043, "face</w>": 2044, "fact</w>": 2045, "fair</w>": 2046, "fall</w>": 2047, "fame</w>": 2048, "fans</w>": 2049, "fare</w>": 2050, "farm</w>": 2051, "fast</w>": 2052, "fate</w>": 2053, "fear</w>": 2054, "feed</w>": 2055, "feel</w>": 2056, "feet</w>": 2057, "fell</w>": 2058, "felt</w>": 2059, "fers</w>": 2060, "ffin</w>": 2061, "fied</w>": 2062, "file</w>": 2063, "fill</w>": 2064, "film</w>": 2065, "find</w>": 2066, "fine</w>": 2067, "fire</w>": 2068, "firm</w>": 2069, "fish</w>": 2070, "five</w>": 2071, "flag</w>": 2072, "flat</w>": 2073, "fled</w>": 2074, "flew</w>": 2075, "flow</w>": 2076, "folk</w>": 2077, "food</w>": 2078, "foot</w>": 2079, "ford</w>": 2080, "fore</w>": 2081, "form</w>": 2082, "fort</w>": 2083, "four</w>": 2084, "fred</w>": 2085, "free</w>": 2086, "frey</w>": 2087, "from</w>": 2088, "fted</w>": 2089, "fter</w>": 2090, "fuel</w>": 2091, "full</w>": 2092, "fund</w>": 2093, "gaga</w>": 2094, "gain</w>": 2095, "game</w>": 2096, "gary</w>": 2097, "gate</w>": 2098, "gave</w>": 2099, "gely</w>": 2100, "gene</w>": 2101, "geon</w>": 2102, "gers</w>": 2103, "gery</w>": 2104, "gest</w>": 2105, "gets</w>": 2106, "ghly</w>": 2107, "ghts</w>": 2108, "gian</w>": 2109, "ging</w>": 2110, "gins</w>": 2111, "girl</w>": 2112, "give</w>": 2113, "glas</w>": 2114, "goal</w>": 2115, "goes</w>": 2116, "gold</w>": 2117, "gone</w>": 2118, "good</w>": 2119, "gram</w>": 2120, "gray</w>": 2121, "grew</w>": 2122, "grey</w>": 2123, "grow</w>": 2124, "gues</w>": 2125, "gulf</w>": 2126, "guns</w>": 2127, "hair</w>": 2128, "half</w>": 2129, "hall</w>": 2130, "halo</w>": 2131, "hand</w>": 2132, "haps</w>": 2133, "hard</w>": 2134, "hart</w>": 2135, "have</w>": 2136, "head</w>": 2137, "hear</w>": 2138, "heat</w>": 2139, "heim</w>": 2140, "held</w>": 2141, "hell</w>": 2142, "helm</w>": 2143, "help</w>": 2144, "here</w>": 2145, "hero</w>": 2146, "high</w>": 2147, "hill</w>": 2148, "hind</w>": 2149, "hits</w>": 2150, "hold</w>": 2151, "hole</w>": 2152, "holy</w>": 2153, "home</w>": 2154, "hong</w>": 2155, "hood</w>": 2156, "hope</w>": 2157, "host</w>": 2158, "hour</w>": 2159, "huge</w>": 2160, "hull</w>": 2161, "hunt</w>": 2162, "hurrican": 2163, "ians</w>": 2164, "ical</w>": 2165, "idea</w>": 2166, "ight</w>": 2167, "iled</w>": 2168, "iler</w>": 2169, "ille</w>": 2170, "imprison": 2171, "inch</w>": 2172, "incorpor": 2173, "individu": 2174, "industri": 2175, "inea</w>": 2176, "ined</w>": 2177, "iner</w>": 2178, "ines</w>": 2179, "ings</w>": 2180, "inst</w>": 2181, "intellig": 2182, "interest": 2183, "interpre": 2184, "interven": 2185, "into</w>": 2186, "ints</w>": 2187, "inum</w>": 2188, "investig": 2189, "iowa</w>": 2190, "iraq</w>": 2191, "ired</w>": 2192, "ires</w>": 2193, "iron</w>": 2194, "isbn</w>": 2195, "ised</w>": 2196, "iser</w>": 2197, "ises</w>": 2198, "ison</w>": 2199, "ists</w>": 2200, "ital</w>": 2201, "ited</w>": 2202, "ites</w>": 2203, "itor</w>": 2204, "ized</w>": 2205, "jack</w>": 2206, "jane</w>": 2207, "jazz</w>": 2208, "jean</w>": 2209, "ject</w>": 2210, "jeff</w>": 2211, "jews</w>": 2212, "jobs</w>": 2213, "john</w>": 2214, "join</w>": 2215, "july</w>": 2216, "jump</w>": 2217, "june</w>": 2218, "jury</w>": 2219, "just</w>": 2220, "kane</w>": 2221, "keep</w>": 2222, "kent</w>": 2223, "kept</w>": 2224, "kers</w>": 2225, "kets</w>": 2226, "keys</w>": 2227, "khan</w>": 2228, "kick</w>": 2229, "kids</w>": 2230, "kill</w>": 2231, "kind</w>": 2232, "king</w>": 2233, "kins</w>": 2234, "kiss</w>": 2235, "knew</w>": 2236, "know</w>": 2237, "kong</w>": 2238, "kurt</w>": 2239, "lack</w>": 2240, "lady</w>": 2241, "laid</w>": 2242, "lake</w>": 2243, "land</w>": 2244, "lane</w>": 2245, "lars</w>": 2246, "last</w>": 2247, "late</w>": 2248, "laws</w>": 2249, "lead</w>": 2250, "leaf</w>": 2251, "left</w>": 2252, "legislat": 2253, "legs</w>": 2254, "lers</w>": 2255, "less</w>": 2256, "lets</w>": 2257, "lian</w>": 2258, "lica</w>": 2259, "lied</w>": 2260, "lies</w>": 2261, "life</w>": 2262, "lift</w>": 2263, "like</w>": 2264, "line</w>": 2265, "ling</w>": 2266, "link</w>": 2267, "lins</w>": 2268, "lion</w>": 2269, "lisa</w>": 2270, "lish</w>": 2271, "list</w>": 2272, "live</w>": 2273, "ller</w>": 2274, "load</w>": 2275, "loan</w>": 2276, "lock</w>": 2277, "long</w>": 2278, "look</w>": 2279, "loop</w>": 2280, "lord</w>": 2281, "lose</w>": 2282, "loss</w>": 2283, "lost</w>": 2284, "love</w>": 2285, "made</w>": 2286, "mail</w>": 2287, "main</w>": 2288, "make</w>": 2289, "male</w>": 2290, "mann</w>": 2291, "mans</w>": 2292, "many</w>": 2293, "mark</w>": 2294, "mars</w>": 2295, "mary</w>": 2296, "mass</w>": 2297, "massachu": 2298, "mate</w>": 2299, "math</w>": 2300, "matt</w>": 2301, "mean</w>": 2302, "meat</w>": 2303, "meet</w>": 2304, "ment</w>": 2305, "mike</w>": 2306, "mile</w>": 2307, "mill</w>": 2308, "mind</w>": 2309, "mine</w>": 2310, "ming</w>": 2311, "mint</w>": 2312, "mise</w>": 2313, "miss</w>": 2314, "mississi": 2315, "mode</w>": 2316, "mond</w>": 2317, "mont</w>": 2318, "moon</w>": 2319, "more</w>": 2320, "most</w>": 2321, "move</w>": 2322, "much</w>": 2323, "mund</w>": 2324, "must</w>": 2325, "name</w>": 2326, "nate</w>": 2327, "navy</w>": 2328, "nazi</w>": 2329, "near</w>": 2330, "neck</w>": 2331, "need</w>": 2332, "neighbor": 2333, "ners</w>": 2334, "ness</w>": 2335, "nest</w>": 2336, "nett</w>": 2337, "news</w>": 2338, "next</w>": 2339, "nick</w>": 2340, "nine</w>": 2341, "ning</w>": 2342, "nium</w>": 2343, "none</w>": 2344, "noon</w>": 2345, "note</w>": 2346, "nova</w>": 2347, "nown</w>": 2348, "offs</w>": 2349, "ogue</w>": 2350, "ohio</w>": 2351, "olds</w>": 2352, "onal</w>": 2353, "once</w>": 2354, "onc\u00e9</w>": 2355, "oned</w>": 2356, "ones</w>": 2357, "onia</w>": 2358, "onic</w>": 2359, "only</w>": 2360, "onto</w>": 2361, "open</w>": 2362, "oper</w>": 2363, "ople</w>": 2364, "oral</w>": 2365, "orchestr": 2366, "ored</w>": 2367, "ough</w>": 2368, "ould</w>": 2369, "ound</w>": 2370, "ours</w>": 2371, "outh</w>": 2372, "outs</w>": 2373, "over</w>": 2374, "pace</w>": 2375, "pack</w>": 2376, "page</w>": 2377, "paid</w>": 2378, "pain</w>": 2379, "pair</w>": 2380, "park</w>": 2381, "part</w>": 2382, "particip": 2383, "particul": 2384, "pass</w>": 2385, "past</w>": 2386, "path</w>": 2387, "paul</w>": 2388, "peak</w>": 2389, "peninsul": 2390, "pher</w>": 2391, "philosop": 2392, "photogra": 2393, "pick</w>": 2394, "pied</w>": 2395, "pike</w>": 2396, "pine</w>": 2397, "ping</w>": 2398, "pink</w>": 2399, "plan</w>": 2400, "play</w>": 2401, "pled</w>": 2402, "pler</w>": 2403, "ples</w>": 2404, "plot</w>": 2405, "plus</w>": 2406, "poem</w>": 2407, "poet</w>": 2408, "pole</w>": 2409, "politici": 2410, "poll</w>": 2411, "pool</w>": 2412, "poor</w>": 2413, "pope</w>": 2414, "port</w>": 2415, "pose</w>": 2416, "post</w>": 2417, "pped</w>": 2418, "pper</w>": 2419, "precipit": 2420, "prey</w>": 2421, "pson</w>": 2422, "punk</w>": 2423, "pure</w>": 2424, "ques</w>": 2425, "raaf</w>": 2426, "race</w>": 2427, "raft</w>": 2428, "raid</w>": 2429, "rail</w>": 2430, "rain</w>": 2431, "rams</w>": 2432, "rank</w>": 2433, "rant</w>": 2434, "rare</w>": 2435, "rate</w>": 2436, "read</w>": 2437, "reak</w>": 2438, "real</w>": 2439, "ream</w>": 2440, "rear</w>": 2441, "reau</w>": 2442, "relation": 2443, "rely</w>": 2444, "rest</w>": 2445, "rets</w>": 2446, "rian</w>": 2447, "rice</w>": 2448, "rich</w>": 2449, "rick</w>": 2450, "rico</w>": 2451, "ride</w>": 2452, "ried</w>": 2453, "rier</w>": 2454, "ries</w>": 2455, "ring</w>": 2456, "rise</w>": 2457, "risk</w>": 2458, "road</w>": 2459, "rock</w>": 2460, "role</w>": 2461, "roll</w>": 2462, "rome</w>": 2463, "rone</w>": 2464, "rons</w>": 2465, "roof</w>": 2466, "room</w>": 2467, "rose</w>": 2468, "ross</w>": 2469, "rows</w>": 2470, "rule</w>": 2471, "runs</w>": 2472, "rush</w>": 2473, "ryan</w>": 2474, "safe</w>": 2475, "said</w>": 2476, "sale</w>": 2477, "salt</w>": 2478, "same</w>": 2479, "sand</w>": 2480, "sang</w>": 2481, "sank</w>": 2482, "sant</w>": 2483, "save</w>": 2484, "says</w>": 2485, "seas</w>": 2486, "seat</w>": 2487, "seek</w>": 2488, "seem</w>": 2489, "seen</w>": 2490, "sees</w>": 2491, "self</w>": 2492, "sell</w>": 2493, "sels</w>": 2494, "sely</w>": 2495, "semi</w>": 2496, "send</w>": 2497, "sent</w>": 2498, "seph</w>": 2499, "sest</w>": 2500, "sets</w>": 2501, "shaw</w>": 2502, "shed</w>": 2503, "sher</w>": 2504, "shes</w>": 2505, "ship</w>": 2506, "shop</w>": 2507, "shot</w>": 2508, "show</w>": 2509, "sian</w>": 2510, "side</w>": 2511, "sign</w>": 2512, "sing</w>": 2513, "sion</w>": 2514, "site</w>": 2515, "sity</w>": 2516, "sive</w>": 2517, "size</w>": 2518, "skin</w>": 2519, "sley</w>": 2520, "slie</w>": 2521, "slow</w>": 2522, "sman</w>": 2523, "smen</w>": 2524, "snow</w>": 2525, "soft</w>": 2526, "soil</w>": 2527, "sold</w>": 2528, "sole</w>": 2529, "solo</w>": 2530, "some</w>": 2531, "song</w>": 2532, "sons</w>": 2533, "sony</w>": 2534, "soon</w>": 2535, "sort</w>": 2536, "soul</w>": 2537, "span</w>": 2538, "spin</w>": 2539, "spot</w>": 2540, "ssed</w>": 2541, "sses</w>": 2542, "stal</w>": 2543, "stan</w>": 2544, "star</w>": 2545, "stay</w>": 2546, "sted</w>": 2547, "stem</w>": 2548, "step</w>": 2549, "ster</w>": 2550, "stic</w>": 2551, "stin</w>": 2552, "stly</w>": 2553, "stol</w>": 2554, "ston</w>": 2555, "stop</w>": 2556, "strength": 2557, "stry</w>": 2558, "substitu": 2559, "such</w>": 2560, "suit</w>": 2561, "sume</w>": 2562, "sung</w>": 2563, "sunk</w>": 2564, "sure</w>": 2565, "tage</w>": 2566, "tail</w>": 2567, "tain</w>": 2568, "take</w>": 2569, "tale</w>": 2570, "talk</w>": 2571, "tall</w>": 2572, "tana</w>": 2573, "tank</w>": 2574, "tant</w>": 2575, "tary</w>": 2576, "task</w>": 2577, "team</w>": 2578, "tech</w>": 2579, "teen</w>": 2580, "tell</w>": 2581, "tely</w>": 2582, "tend</w>": 2583, "term</w>": 2584, "ters</w>": 2585, "tery</w>": 2586, "test</w>": 2587, "text</w>": 2588, "than</w>": 2589, "that</w>": 2590, "them</w>": 2591, "then</w>": 2592, "ther</w>": 2593, "thes</w>": 2594, "they</w>": 2595, "thic</w>": 2596, "thin</w>": 2597, "this</w>": 2598, "thly</w>": 2599, "thus</w>": 2600, "tial</w>": 2601, "tian</w>": 2602, "tice</w>": 2603, "tics</w>": 2604, "tied</w>": 2605, "tier</w>": 2606, "ties</w>": 2607, "tile</w>": 2608, "time</w>": 2609, "tine</w>": 2610, "ting</w>": 2611, "tiny</w>": 2612, "tion</w>": 2613, "tish</w>": 2614, "tism</w>": 2615, "tive</w>": 2616, "tled</w>": 2617, "tman</w>": 2618, "tney</w>": 2619, "told</w>": 2620, "toll</w>": 2621, "toms</w>": 2622, "tone</w>": 2623, "tons</w>": 2624, "tony</w>": 2625, "took</w>": 2626, "tors</w>": 2627, "tory</w>": 2628, "tour</w>": 2629, "town</w>": 2630, "transpor": 2631, "tree</w>": 2632, "trek</w>": 2633, "tres</w>": 2634, "tric</w>": 2635, "trip</w>": 2636, "true</w>": 2637, "tted</w>": 2638, "tual</w>": 2639, "tube</w>": 2640, "tune</w>": 2641, "ture</w>": 2642, "turn</w>": 2643, "twin</w>": 2644, "type</w>": 2645, "uary</w>": 2646, "ught</w>": 2647, "ular</w>": 2648, "umes</w>": 2649, "unit</w>": 2650, "upon</w>": 2651, "ural</w>": 2652, "ured</w>": 2653, "ures</w>": 2654, "used</w>": 2655, "uses</w>": 2656, "vals</w>": 2657, "vels</w>": 2658, "velt</w>": 2659, "vely</w>": 2660, "vers</w>": 2661, "very</w>": 2662, "vice</w>": 2663, "viet</w>": 2664, "view</w>": 2665, "ving</w>": 2666, "vity</w>": 2667, "vote</w>": 2668, "wait</w>": 2669, "wake</w>": 2670, "walk</w>": 2671, "wall</w>": 2672, "want</w>": 2673, "ward</w>": 2674, "warm</w>": 2675, "wars</w>": 2676, "wart</w>": 2677, "wasn</w>": 2678, "wave</w>": 2679, "ways</w>": 2680, "weak</w>": 2681, "wear</w>": 2682, "week</w>": 2683, "ween</w>": 2684, "well</w>": 2685, "went</w>": 2686, "were</w>": 2687, "wers</w>": 2688, "west</w>": 2689, "what</w>": 2690, "when</w>": 2691, "whom</w>": 2692, "wich</w>": 2693, "wick</w>": 2694, "wide</w>": 2695, "wife</w>": 2696, "wild</w>": 2697, "will</w>": 2698, "wind</w>": 2699, "wine</w>": 2700, "wing</w>": 2701, "wins</w>": 2702, "wise</w>": 2703, "wish</w>": 2704, "with</w>": 2705, "wood</w>": 2706, "word</w>": 2707, "wore</w>": 2708, "work</w>": 2709, "worn</w>": 2710, "xbox</w>": 2711, "yard</w>": 2712, "year</w>": 2713, "yers</w>": 2714, "ying</w>": 2715, "ylor</w>": 2716, "york</w>": 2717, "your</w>": 2718, "zero</w>": 2719, "zing</w>": 2720, "zona</w>": 2721, "zone</w>": 2722, "zzle</w>": 2723, "'ll</w>": 2724, "'re</w>": 2725, "'ve</w>": 2726, "000</w>": 2727, "0th</w>": 2728, "100</w>": 2729, "110</w>": 2730, "120</w>": 2731, "130</w>": 2732, "140</w>": 2733, "150</w>": 2734, "160</w>": 2735, "180</w>": 2736, "1st</w>": 2737, "200</w>": 2738, "20s</w>": 2739, "250</w>": 2740, "2nd</w>": 2741, "300</w>": 2742, "360</w>": 2743, "3rd</w>": 2744, "400</w>": 2745, "4th</w>": 2746, "500</w>": 2747, "5th</w>": 2748, "600</w>": 2749, "6th</w>": 2750, "700</w>": 2751, "7th</w>": 2752, "800</w>": 2753, "8th</w>": 2754, "900</w>": 2755, "9th</w>": 2756, "@-@</w>": 2757, "abc</w>": 2758, "acceler": 2759, "accommo": 2760, "ace</w>": 2761, "ach</w>": 2762, "ack</w>": 2763, "act</w>": 2764, "acy</w>": 2765, "ada</w>": 2766, "add</w>": 2767, "ade</w>": 2768, "ado</w>": 2769, "ads</w>": 2770, "adverti": 2771, "aft</w>": 2772, "aga</w>": 2773, "age</w>": 2774, "ago</w>": 2775, "agricul": 2776, "aid</w>": 2777, "ain</w>": 2778, "air</w>": 2779, "aki</w>": 2780, "ala</w>": 2781, "ald</w>": 2782, "ale</w>": 2783, "alexand": 2784, "ali</w>": 2785, "all</w>": 2786, "alo</w>": 2787, "als</w>": 2788, "ama</w>": 2789, "ame</w>": 2790, "ami</w>": 2791, "ams</w>": 2792, "amy</w>": 2793, "ana</w>": 2794, "and</w>": 2795, "ane</w>": 2796, "ang</w>": 2797, "ani</w>": 2798, "ann</w>": 2799, "ano</w>": 2800, "ans</w>": 2801, "ant</w>": 2802, "anticip": 2803, "any</w>": 2804, "apparen": 2805, "appreci": 2806, "ara</w>": 2807, "arc</w>": 2808, "ard</w>": 2809, "are</w>": 2810, "ari</w>": 2811, "arm</w>": 2812, "ars</w>": 2813, "art</w>": 2814, "ary</w>": 2815, "ase</w>": 2816, "ash</w>": 2817, "ass</w>": 2818, "ata</w>": 2819, "ate</w>": 2820, "ath</w>": 2821, "ats</w>": 2822, "att</w>": 2823, "attribu": 2824, "authori": 2825, "bad</w>": 2826, "bal</w>": 2827, "ban</w>": 2828, "bar</w>": 2829, "bat</w>": 2830, "battali": 2831, "battlec": 2832, "bay</w>": 2833, "bbc</w>": 2834, "bby</w>": 2835, "bed</w>": 2836, "bel</w>": 2837, "ben</w>": 2838, "ber</w>": 2839, "bes</w>": 2840, "bey</w>": 2841, "bia</w>": 2842, "bic</w>": 2843, "bid</w>": 2844, "bie</w>": 2845, "big</w>": 2846, "bin</w>": 2847, "bit</w>": 2848, "ble</w>": 2849, "bly</w>": 2850, "bob</w>": 2851, "bon</w>": 2852, "bor</w>": 2853, "bot</w>": 2854, "bow</w>": 2855, "box</w>": 2856, "boy</w>": 2857, "bra</w>": 2858, "bus</w>": 2859, "but</w>": 2860, "buy</w>": 2861, "cal</w>": 2862, "califor": 2863, "campaig": 2864, "can</w>": 2865, "cap</w>": 2866, "car</w>": 2867, "cat</w>": 2868, "cathedr": 2869, "ced</w>": 2870, "celebra": 2871, "cer</w>": 2872, "certain": 2873, "ces</w>": 2874, "che</w>": 2875, "chi</w>": 2876, "childre": 2877, "christi": 2878, "chronic": 2879, "chy</w>": 2880, "cia</w>": 2881, "cil</w>": 2882, "cks</w>": 2883, "cky</w>": 2884, "cle</w>": 2885, "com</w>": 2886, "comment": 2887, "communi": 2888, "compani": 2889, "competi": 2890, "concent": 2891, "conflic": 2892, "confron": 2893, "consecu": 2894, "consequ": 2895, "consist": 2896, "conspir": 2897, "continu": 2898, "contrac": 2899, "control": 2900, "convinc": 2901, "coordin": 2902, "counter": 2903, "critici": 2904, "cup</w>": 2905, "cus</w>": 2906, "cut</w>": 2907, "dad</w>": 2908, "dae</w>": 2909, "dal</w>": 2910, "dam</w>": 2911, "dan</w>": 2912, "dar</w>": 2913, "day</w>": 2914, "decreas": 2915, "ded</w>": 2916, "del</w>": 2917, "deliber": 2918, "deliver": 2919, "den</w>": 2920, "der</w>": 2921, "des</w>": 2922, "descrip": 2923, "destroy": 2924, "destruc": 2925, "develop": 2926, "dge</w>": 2927, "dia</w>": 2928, "dic</w>": 2929, "did</w>": 2930, "die</w>": 2931, "dis</w>": 2932, "discipl": 2933, "displac": 2934, "distinc": 2935, "distric": 2936, "dit</w>": 2937, "dle</w>": 2938, "dly</w>": 2939, "dna</w>": 2940, "dog</w>": 2941, "dom</w>": 2942, "don</w>": 2943, "dot</w>": 2944, "dow</w>": 2945, "dry</w>": 2946, "due</w>": 2947, "duo</w>": 2948, "dvd</w>": 2949, "ead</w>": 2950, "eam</w>": 2951, "ean</w>": 2952, "ear</w>": 2953, "eau</w>": 2954, "ece</w>": 2955, "ech</w>": 2956, "ect</w>": 2957, "eds</w>": 2958, "ees</w>": 2959, "efs</w>": 2960, "ego</w>": 2961, "eld</w>": 2962, "electri": 2963, "electro": 2964, "eli</w>": 2965, "ell</w>": 2966, "els</w>": 2967, "ely</w>": 2968, "ems</w>": 2969, "ena</w>": 2970, "encoura": 2971, "end</w>": 2972, "ene</w>": 2973, "ens</w>": 2974, "ent</w>": 2975, "environ": 2976, "era</w>": 2977, "ere</w>": 2978, "ern</w>": 2979, "ero</w>": 2980, "ers</w>": 2981, "ery</w>": 2982, "ese</w>": 2983, "ess</w>": 2984, "est</w>": 2985, "establi": 2986, "eth</w>": 2987, "ets</w>": 2988, "ety</w>": 2989, "eur</w>": 2990, "eve</w>": 2991, "experim": 2992, "eye</w>": 2993, "fan</w>": 2994, "far</w>": 2995, "fed</w>": 2996, "fee</w>": 2997, "fer</w>": 2998, "few</w>": 2999, "ffs</w>": 3000, "fic</w>": 3001, "fit</w>": 3002, "fly</w>": 3003, "for</w>": 3004, "formula": 3005, "fox</w>": 3006, "franchi": 3007, "francis": 3008, "fts</w>": 3009, "ful</w>": 3010, "fun</w>": 3011, "fur</w>": 3012, "further": 3013, "gal</w>": 3014, "gan</w>": 3015, "gap</w>": 3016, "gar</w>": 3017, "gas</w>": 3018, "gay</w>": 3019, "ged</w>": 3020, "gel</w>": 3021, "gen</w>": 3022, "ger</w>": 3023, "ges</w>": 3024, "get</w>": 3025, "ght</w>": 3026, "gia</w>": 3027, "gic</w>": 3028, "gie</w>": 3029, "gin</w>": 3030, "gle</w>": 3031, "god</w>": 3032, "got</w>": 3033, "gue</w>": 3034, "guitari": 3035, "gun</w>": 3036, "gus</w>": 3037, "guy</w>": 3038, "had</w>": 3039, "ham</w>": 3040, "han</w>": 3041, "has</w>": 3042, "helicop": 3043, "hen</w>": 3044, "her</w>": 3045, "him</w>": 3046, "hip</w>": 3047, "his</w>": 3048, "hit</w>": 3049, "hms</w>": 3050, "hop</w>": 3051, "hot</w>": 3052, "how</w>": 3053, "hypothe": 3054, "ial</w>": 3055, "ian</w>": 3056, "ica</w>": 3057, "ice</w>": 3058, "ick</w>": 3059, "ics</w>": 3060, "ids</w>": 3061, "ied</w>": 3062, "ies</w>": 3063, "ign</w>": 3064, "iii</w>": 3065, "ila</w>": 3066, "ile</w>": 3067, "ill</w>": 3068, "ils</w>": 3069, "ily</w>": 3070, "ina</w>": 3071, "inc</w>": 3072, "increas": 3073, "indepen": 3074, "ine</w>": 3075, "ing</w>": 3076, "inhabit": 3077, "ini</w>": 3078, "ink</w>": 3079, "inn</w>": 3080, "ino</w>": 3081, "ins</w>": 3082, "institu": 3083, "instruc": 3084, "int</w>": 3085, "intensi": 3086, "investi": 3087, "iny</w>": 3088, "ior</w>": 3089, "ira</w>": 3090, "ire</w>": 3091, "irs</w>": 3092, "iry</w>": 3093, "ise</w>": 3094, "ish</w>": 3095, "ism</w>": 3096, "iss</w>": 3097, "ist</w>": 3098, "ita</w>": 3099, "ite</w>": 3100, "ith</w>": 3101, "its</w>": 3102, "ity</w>": 3103, "ium</w>": 3104, "ius</w>": 3105, "jan</w>": 3106, "jay</w>": 3107, "jet</w>": 3108, "jim</w>": 3109, "job</w>": 3110, "joe</w>": 3111, "jon</w>": 3112, "ked</w>": 3113, "ken</w>": 3114, "ker</w>": 3115, "kes</w>": 3116, "ket</w>": 3117, "key</w>": 3118, "kie</w>": 3119, "kim</w>": 3120, "kin</w>": 3121, "km2</w>": 3122, "kyo</w>": 3123, "lam</w>": 3124, "lan</w>": 3125, "lap</w>": 3126, "lar</w>": 3127, "las</w>": 3128, "law</w>": 3129, "lay</w>": 3130, "ldn</w>": 3131, "led</w>": 3132, "lee</w>": 3133, "leg</w>": 3134, "lem</w>": 3135, "len</w>": 3136, "ler</w>": 3137, "les</w>": 3138, "let</w>": 3139, "ley</w>": 3140, "lia</w>": 3141, "lic</w>": 3142, "lie</w>": 3143, "lin</w>": 3144, "lis</w>": 3145, "lit</w>": 3146, "los</w>": 3147, "lot</w>": 3148, "low</w>": 3149, "lst</w>": 3150, "lum</w>": 3151, "lus</w>": 3152, "lyn</w>": 3153, "mad</w>": 3154, "madagas": 3155, "mainten": 3156, "mal</w>": 3157, "malaysi": 3158, "man</w>": 3159, "manhatt": 3160, "manufac": 3161, "map</w>": 3162, "mar</w>": 3163, "mas</w>": 3164, "mathema": 3165, "max</w>": 3166, "may</w>": 3167, "med</w>": 3168, "mediter": 3169, "men</w>": 3170, "mer</w>": 3171, "merchan": 3172, "mes</w>": 3173, "met</w>": 3174, "mic</w>": 3175, "mid</w>": 3176, "minneso": 3177, "mission": 3178, "mit</w>": 3179, "mix</w>": 3180, "mon</w>": 3181, "mph</w>": 3182, "mrs</w>": 3183, "mtv</w>": 3184, "nal</w>": 3185, "nam</w>": 3186, "nan</w>": 3187, "nba</w>": 3188, "nbc</w>": 3189, "ned</w>": 3190, "nel</w>": 3191, "ner</w>": 3192, "nes</w>": 3193, "net</w>": 3194, "neverth": 3195, "new</w>": 3196, "newspap": 3197, "ney</w>": 3198, "nfl</w>": 3199, "nhl</w>": 3200, "nia</w>": 3201, "nic</w>": 3202, "nie</w>": 3203, "nis</w>": 3204, "non</w>": 3205, "nor</w>": 3206, "not</w>": 3207, "now</w>": 3208, "oak</w>": 3209, "ock</w>": 3210, "ods</w>": 3211, "ody</w>": 3212, "oes</w>": 3213, "off</w>": 3214, "ographi": 3215, "oil</w>": 3216, "ois</w>": 3217, "oklahom": 3218, "ola</w>": 3219, "old</w>": 3220, "ole</w>": 3221, "ols</w>": 3222, "ome</w>": 3223, "oms</w>": 3224, "ona</w>": 3225, "ond</w>": 3226, "one</w>": 3227, "ong</w>": 3228, "ons</w>": 3229, "ony</w>": 3230, "ood</w>": 3231, "ool</w>": 3232, "oon</w>": 3233, "ops</w>": 3234, "ora</w>": 3235, "ore</w>": 3236, "organis": 3237, "ors</w>": 3238, "ort</w>": 3239, "ory</w>": 3240, "ose</w>": 3241, "ota</w>": 3242, "oth</w>": 3243, "ots</w>": 3244, "our</w>": 3245, "ous</w>": 3246, "out</w>": 3247, "own</w>": 3248, "pal</w>": 3249, "paralle": 3250, "parliam": 3251, "partner": 3252, "passeng": 3253, "pay</w>": 3254, "ped</w>": 3255, "per</w>": 3256, "percent": 3257, "pes</w>": 3258, "pet</w>": 3259, "pha</w>": 3260, "philipp": 3261, "phs</w>": 3262, "phy</w>": 3263, "pic</w>": 3264, "pit</w>": 3265, "ple</w>": 3266, "pop</w>": 3267, "pot</w>": 3268, "ppi</w>": 3269, "practic": 3270, "pre</w>": 3271, "pro</w>": 3272, "program": 3273, "prospec": 3274, "purchas": 3275, "pus</w>": 3276, "put</w>": 3277, "quarter": 3278, "que</w>": 3279, "raf</w>": 3280, "ram</w>": 3281, "ran</w>": 3282, "rap</w>": 3283, "raw</w>": 3284, "ray</w>": 3285, "recogni": 3286, "recover": 3287, "red</w>": 3288, "ree</w>": 3289, "regular": 3290, "reinfor": 3291, "ren</w>": 3292, "republi": 3293, "require": 3294, "rer</w>": 3295, "res</w>": 3296, "restaur": 3297, "restric": 3298, "ret</w>": 3299, "rey</w>": 3300, "ria</w>": 3301, "ric</w>": 3302, "rie</w>": 3303, "ril</w>": 3304, "ris</w>": 3305, "rit</w>": 3306, "ron</w>": 3307, "ror</w>": 3308, "row</w>": 3309, "roy</w>": 3310, "run</w>": 3311, "rus</w>": 3312, "sacrifi": 3313, "sal</w>": 3314, "sam</w>": 3315, "san</w>": 3316, "sas</w>": 3317, "saw</w>": 3318, "say</w>": 3319, "sby</w>": 3320, "sch</w>": 3321, "scienti": 3322, "sea</w>": 3323, "sed</w>": 3324, "see</w>": 3325, "sel</w>": 3326, "sen</w>": 3327, "ser</w>": 3328, "ses</w>": 3329, "set</w>": 3330, "sex</w>": 3331, "sey</w>": 3332, "sha</w>": 3333, "she</w>": 3334, "shi</w>": 3335, "sia</w>": 3336, "sic</w>": 3337, "signifi": 3338, "sin</w>": 3339, "sir</w>": 3340, "sis</w>": 3341, "sit</w>": 3342, "six</w>": 3343, "ska</w>": 3344, "ski</w>": 3345, "sky</w>": 3346, "son</w>": 3347, "sor</w>": 3348, "soverei": 3349, "sta</w>": 3350, "ste</w>": 3351, "strateg": 3352, "sts</w>": 3353, "sty</w>": 3354, "sub</w>": 3355, "subsequ": 3356, "substan": 3357, "success": 3358, "sue</w>": 3359, "sun</w>": 3360, "surroun": 3361, "sus</w>": 3362, "switzer": 3363, "tag</w>": 3364, "tal</w>": 3365, "tan</w>": 3366, "tar</w>": 3367, "tax</w>": 3368, "tch</w>": 3369, "ted</w>": 3370, "tee</w>": 3371, "tel</w>": 3372, "ten</w>": 3373, "ter</w>": 3374, "tes</w>": 3375, "tha</w>": 3376, "the</w>": 3377, "through": 3378, "ths</w>": 3379, "thunder": 3380, "thy</w>": 3381, "tia</w>": 3382, "tic</w>": 3383, "tie</w>": 3384, "til</w>": 3385, "tim</w>": 3386, "tin</w>": 3387, "tip</w>": 3388, "tis</w>": 3389, "tle</w>": 3390, "tly</w>": 3391, "tom</w>": 3392, "ton</w>": 3393, "too</w>": 3394, "top</w>": 3395, "tor</w>": 3396, "tournam": 3397, "tra</w>": 3398, "tre</w>": 3399, "tro</w>": 3400, "try</w>": 3401, "tty</w>": 3402, "tus</w>": 3403, "two</w>": 3404, "ual</w>": 3405, "ude</w>": 3406, "uel</w>": 3407, "ues</w>": 3408, "ula</w>": 3409, "ull</w>": 3410, "ume</w>": 3411, "una</w>": 3412, "und</w>": 3413, "ung</w>": 3414, "univers": 3415, "unt</w>": 3416, "ura</w>": 3417, "ure</w>": 3418, "urs</w>": 3419, "ury</w>": 3420, "usa</w>": 3421, "usd</w>": 3422, "use</w>": 3423, "uss</w>": 3424, "utc</w>": 3425, "ute</w>": 3426, "val</w>": 3427, "van</w>": 3428, "ved</w>": 3429, "vel</w>": 3430, "ven</w>": 3431, "ver</w>": 3432, "ves</w>": 3433, "vey</w>": 3434, "via</w>": 3435, "vic</w>": 3436, "victori": 3437, "vietnam": 3438, "vii</w>": 3439, "vin</w>": 3440, "vis</w>": 3441, "volunte": 3442, "von</w>": 3443, "voy</w>": 3444, "wan</w>": 3445, "war</w>": 3446, "was</w>": 3447, "way</w>": 3448, "wed</w>": 3449, "wer</w>": 3450, "who</w>": 3451, "why</w>": 3452, "wie</w>": 3453, "win</w>": 3454, "wns</w>": 3455, "won</w>": 3456, "wwe</w>": 3457, "xon</w>": 3458, "yal</w>": 3459, "yan</w>": 3460, "yed</w>": 3461, "yer</w>": 3462, "yet</w>": 3463, "yne</w>": 3464, "yon</w>": 3465, "you</w>": 3466, "yugosla": 3467, "zed</w>": 3468, "zen</w>": 3469, "zer</w>": 3470, "zes</w>": 3471, "zon</w>": 3472, "'d</w>": 3473, "'m</w>": 3474, "'s</w>": 3475, "'t</w>": 3476, "00</w>": 3477, "01</w>": 3478, "02</w>": 3479, "03</w>": 3480, "04</w>": 3481, "05</w>": 3482, "06</w>": 3483, "07</w>": 3484, "08</w>": 3485, "09</w>": 3486, "0s</w>": 3487, "10</w>": 3488, "11</w>": 3489, "12</w>": 3490, "13</w>": 3491, "14</w>": 3492, "15</w>": 3493, "16</w>": 3494, "17</w>": 3495, "18</w>": 3496, "19</w>": 3497, "20</w>": 3498, "21</w>": 3499, "22</w>": 3500, "23</w>": 3501, "24</w>": 3502, "25</w>": 3503, "26</w>": 3504, "27</w>": 3505, "28</w>": 3506, "29</w>": 3507, "30</w>": 3508, "31</w>": 3509, "32</w>": 3510, "33</w>": 3511, "34</w>": 3512, "35</w>": 3513, "36</w>": 3514, "37</w>": 3515, "38</w>": 3516, "39</w>": 3517, "3d</w>": 3518, "40</w>": 3519, "41</w>": 3520, "42</w>": 3521, "43</w>": 3522, "44</w>": 3523, "45</w>": 3524, "46</w>": 3525, "47</w>": 3526, "48</w>": 3527, "49</w>": 3528, "50</w>": 3529, "51</w>": 3530, "52</w>": 3531, "53</w>": 3532, "54</w>": 3533, "55</w>": 3534, "56</w>": 3535, "57</w>": 3536, "58</w>": 3537, "59</w>": 3538, "60</w>": 3539, "61</w>": 3540, "62</w>": 3541, "63</w>": 3542, "64</w>": 3543, "65</w>": 3544, "66</w>": 3545, "67</w>": 3546, "68</w>": 3547, "69</w>": 3548, "70</w>": 3549, "71</w>": 3550, "72</w>": 3551, "73</w>": 3552, "74</w>": 3553, "75</w>": 3554, "76</w>": 3555, "77</w>": 3556, "78</w>": 3557, "79</w>": 3558, "80</w>": 3559, "81</w>": 3560, "82</w>": 3561, "83</w>": 3562, "84</w>": 3563, "85</w>": 3564, "86</w>": 3565, "87</w>": 3566, "88</w>": 3567, "89</w>": 3568, "90</w>": 3569, "91</w>": 3570, "92</w>": 3571, "93</w>": 3572, "94</w>": 3573, "95</w>": 3574, "96</w>": 3575, "97</w>": 3576, "98</w>": 3577, "99</w>": 3578, "aa</w>": 3579, "ac</w>": 3580, "accomp": 3581, "accoun": 3582, "achiev": 3583, "activi": 3584, "ad</w>": 3585, "admini": 3586, "advant": 3587, "ae</w>": 3588, "af</w>": 3589, "affili": 3590, "ah</w>": 3591, "ai</w>": 3592, "ak</w>": 3593, "al</w>": 3594, "alcoho": 3595, "am</w>": 3596, "americ": 3597, "an</w>": 3598, "announ": 3599, "ap</w>": 3600, "appear": 3601, "appoin": 3602, "ar</w>": 3603, "archae": 3604, "archit": 3605, "argent": 3606, "arrang": 3607, "as</w>": 3608, "associ": 3609, "at</w>": 3610, "attemp": 3611, "attend": 3612, "attrac": 3613, "au</w>": 3614, "austri": 3615, "aw</w>": 3616, "ay</w>": 3617, "ba</w>": 3618, "bacter": 3619, "barbar": 3620, "basket": 3621, "battle": 3622, "bc</w>": 3623, "be</w>": 3624, "beauti": 3625, "behavi": 3626, "believ": 3627, "benjam": 3628, "bi</w>": 3629, "bn</w>": 3630, "bo</w>": 3631, "bombar": 3632, "brilli": 3633, "bs</w>": 3634, "by</w>": 3635, "ca</w>": 3636, "cancel": 3637, "candid": 3638, "cardin": 3639, "cd</w>": 3640, "ce</w>": 3641, "celebr": 3642, "ch</w>": 3643, "champi": 3644, "charac": 3645, "christ": 3646, "circum": 3647, "civili": 3648, "ck</w>": 3649, "classi": 3650, "cm</w>": 3651, "co</w>": 3652, "coinci": 3653, "collap": 3654, "coloni": 3655, "comfor": 3656, "comman": 3657, "commer": 3658, "commis": 3659, "commit": 3660, "common": 3661, "commun": 3662, "compar": 3663, "compil": 3664, "compla": 3665, "comple": 3666, "compon": 3667, "compos": 3668, "compri": 3669, "concep": 3670, "concer": 3671, "conclu": 3672, "condem": 3673, "conduc": 3674, "confes": 3675, "confir": 3676, "congre": 3677, "connec": 3678, "consci": 3679, "consul": 3680, "consum": 3681, "contem": 3682, "contex": 3683, "contin": 3684, "contra": 3685, "contro": 3686, "conven": 3687, "conver": 3688, "convic": 3689, "corpor": 3690, "correc": 3691, "corrup": 3692, "cr</w>": 3693, "crimin": 3694, "critic": 3695, "cs</w>": 3696, "cultiv": 3697, "curren": 3698, "custom": 3699, "cy</w>": 3700, "cyclon": 3701, "c\u00e9</w>": 3702, "da</w>": 3703, "dc</w>": 3704, "dd</w>": 3705, "de</w>": 3706, "declar": 3707, "defini": 3708, "delphi": 3709, "democr": 3710, "depart": 3711, "descen": 3712, "descri": 3713, "design": 3714, "destro": 3715, "di</w>": 3716, "diagno": 3717, "differ": 3718, "diplom": 3719, "discus": 3720, "dismis": 3721, "dispat": 3722, "displa": 3723, "disrup": 3724, "dissip": 3725, "distin": 3726, "distur": 3727, "do</w>": 3728, "dr</w>": 3729, "ds</w>": 3730, "dt</w>": 3731, "du</w>": 3732, "dy</w>": 3733, "ea</w>": 3734, "econom": 3735, "ed</w>": 3736, "ee</w>": 3737, "ef</w>": 3738, "ek</w>": 3739, "el</w>": 3740, "elabor": 3741, "electr": 3742, "elimin": 3743, "em</w>": 3744, "employ": 3745, "en</w>": 3746, "encoun": 3747, "engine": 3748, "entran": 3749, "eo</w>": 3750, "ep</w>": 3751, "er</w>": 3752, "es</w>": 3753, "et</w>": 3754, "europe": 3755, "eventu": 3756, "ex</w>": 3757, "excell": 3758, "experi": 3759, "explan": 3760, "explor": 3761, "expres": 3762, "extinc": 3763, "extrem": 3764, "ey</w>": 3765, "ez</w>": 3766, "fa</w>": 3767, "famili": 3768, "fantas": 3769, "favour": 3770, "fc</w>": 3771, "fe</w>": 3772, "ff</w>": 3773, "fl</w>": 3774, "follow": 3775, "fortun": 3776, "freder": 3777, "friend": 3778, "fs</w>": 3779, "ft</w>": 3780, "fy</w>": 3781, "ga</w>": 3782, "gather": 3783, "ge</w>": 3784, "gh</w>": 3785, "gi</w>": 3786, "go</w>": 3787, "govern": 3788, "graphi": 3789, "gs</w>": 3790, "gy</w>": 3791, "ha</w>": 3792, "harmon": 3793, "he</w>": 3794, "hi</w>": 3795, "histor": 3796, "hl</w>": 3797, "hn</w>": 3798, "ho</w>": 3799, "hundre": 3800, "hy</w>": 3801, "ia</w>": 3802, "ic</w>": 3803, "id</w>": 3804, "identi": 3805, "ie</w>": 3806, "if</w>": 3807, "ig</w>": 3808, "ii</w>": 3809, "il</w>": 3810, "im</w>": 3811, "imagin": 3812, "immedi": 3813, "imperi": 3814, "implem": 3815, "import": 3816, "impres": 3817, "in</w>": 3818, "indivi": 3819, "indone": 3820, "inspec": 3821, "instru": 3822, "integr": 3823, "invest": 3824, "ir</w>": 3825, "is</w>": 3826, "it</w>": 3827, "iv</w>": 3828, "ix</w>": 3829, "ja</w>": 3830, "ji</w>": 3831, "jo</w>": 3832, "jr</w>": 3833, "ka</w>": 3834, "ke</w>": 3835, "kg</w>": 3836, "ki</w>": 3837, "kilome": 3838, "km</w>": 3839, "knowle": 3840, "ko</w>": 3841, "ks</w>": 3842, "ku</w>": 3843, "kw</w>": 3844, "ky</w>": 3845, "la</w>": 3846, "lb</w>": 3847, "ld</w>": 3848, "le</w>": 3849, "li</w>": 3850, "lincol": 3851, "ll</w>": 3852, "lo</w>": 3853, "locomo": 3854, "louisi": 3855, "ls</w>": 3856, "ly</w>": 3857, "m2</w>": 3858, "ma</w>": 3859, "master": 3860, "materi": 3861, "matthe": 3862, "md</w>": 3863, "me</w>": 3864, "mechan": 3865, "member": 3866, "meteor": 3867, "mi</w>": 3868, "michel": 3869, "millen": 3870, "mm</w>": 3871, "mo</w>": 3872, "montre": 3873, "mp</w>": 3874, "mr</w>": 3875, "ms</w>": 3876, "munici": 3877, "musici": 3878, "my</w>": 3879, "na</w>": 3880, "napole": 3881, "nation": 3882, "nd</w>": 3883, "ne</w>": 3884, "necess": 3885, "negoti": 3886, "nether": 3887, "ni</w>": 3888, "nichol": 3889, "ninten": 3890, "no</w>": 3891, "ns</w>": 3892, "ny</w>": 3893, "observ": 3894, "od</w>": 3895, "of</w>": 3896, "offici": 3897, "oh</w>": 3898, "ok</w>": 3899, "ol</w>": 3900, "om</w>": 3901, "on</w>": 3902, "op</w>": 3903, "opport": 3904, "or</w>": 3905, "organi": 3906, "origin": 3907, "os</w>": 3908, "ot</w>": 3909, "ou</w>": 3910, "ow</w>": 3911, "pa</w>": 3912, "palest": 3913, "partic": 3914, "patter": 3915, "pc</w>": 3916, "pe</w>": 3917, "perfor": 3918, "perman": 3919, "person": 3920, "ph</w>": 3921, "pm</w>": 3922, "portra": 3923, "practi": 3924, "predec": 3925, "predic": 3926, "prepar": 3927, "princi": 3928, "prison": 3929, "proces": 3930, "produc": 3931, "profes": 3932, "progre": 3933, "promin": 3934, "promis": 3935, "propag": 3936, "propel": 3937, "proper": 3938, "propos": 3939, "protec": 3940, "provin": 3941, "ps</w>": 3942, "pt</w>": 3943, "public": 3944, "quanti": 3945, "ra</w>": 3946, "rd</w>": 3947, "re</w>": 3948, "recogn": 3949, "recomm": 3950, "religi": 3951, "replac": 3952, "repres": 3953, "resear": 3954, "respec": 3955, "respon": 3956, "restor": 3957, "ri</w>": 3958, "richar": 3959, "ro</w>": 3960, "rs</w>": 3961, "ry</w>": 3962, "sa</w>": 3963, "schedu": 3964, "scient": 3965, "screen": 3966, "se</w>": 3967, "sh</w>": 3968, "si</w>": 3969, "singap": 3970, "sk</w>": 3971, "sm</w>": 3972, "so</w>": 3973, "sp</w>": 3974, "specim": 3975, "spirit": 3976, "spring": 3977, "sr</w>": 3978, "ss</w>": 3979, "st</w>": 3980, "statis": 3981, "strate": 3982, "streng": 3983, "strong": 3984, "strugg": 3985, "su</w>": 3986, "succes": 3987, "sugges": 3988, "superi": 3989, "suppor": 3990, "surpri": 3991, "surren": 3992, "surviv": 3993, "suspec": 3994, "sy</w>": 3995, "synthe": 3996, "ta</w>": 3997, "te</w>": 3998, "techni": 3999, "temper": 4000, "tempor": 4001, "tennes": 4002, "termin": 4003, "territ": 4004, "th</w>": 4005, "therap": 4006, "threat": 4007, "ti</w>": 4008, "to</w>": 4009, "transi": 4010, "travel": 4011, "tribun": 4012, "ts</w>": 4013, "tt</w>": 4014, "tv</w>": 4015, "ty</w>": 4016, "tz</w>": 4017, "ud</w>": 4018, "ue</w>": 4019, "uk</w>": 4020, "um</w>": 4021, "un</w>": 4022, "up</w>": 4023, "ur</w>": 4024, "us</w>": 4025, "ut</w>": 4026, "va</w>": 4027, "ve</w>": 4028, "vi</w>": 4029, "victim": 4030, "virgin": 4031, "vo</w>": 4032, "volcan": 4033, "vs</w>": 4034, "vulner": 4035, "vy</w>": 4036, "wa</w>": 4037, "we</w>": 4038, "weaken": 4039, "widesp": 4040, "wn</w>": 4041, "ws</w>": 4042, "ya</w>": 4043, "yd</w>": 4044, "yl</w>": 4045, "yn</w>": 4046, "ys</w>": 4047, "za</w>": 4048, "ze</w>": 4049, "zy</w>": 4050, "zz</w>": 4051, "\u00e1n</w>": 4052, "\u00e9e</w>": 4053, "\u00f3n</w>": 4054, "aband": 4055, "absol": 4056, "absor": 4057, "acade": 4058, "accep": 4059, "acces": 4060, "accor": 4061, "accum": 4062, "accur": 4063, "activ": 4064, "addre": 4065, "adequ": 4066, "adjac": 4067, "admir": 4068, "advan": 4069, "adver": 4070, "advis": 4071, "advoc": 4072, "afric": 4073, "after": 4074, "aggre": 4075, "agoni": 4076, "alber": 4077, "align": 4078, "allow": 4079, "along": 4080, "alter": 4081, "ambas": 4082, "amend": 4083, "among": 4084, "amoun": 4085, "amphi": 4086, "analy": 4087, "andre": 4088, "angel": 4089, "antas": 4090, "appli": 4091, "appro": 4092, "archa": 4093, "archi": 4094, "armen": 4095, "arran": 4096, "arsen": 4097, "artic": 4098, "aspec": 4099, "assem": 4100, "asser": 4101, "assin": 4102, "athle": 4103, "atlan": 4104, "attac": 4105, "attor": 4106, "austr": 4107, "autom": 4108, "autum": 4109, "avail": 4110, "balla": 4111, "bapti": 4112, "barre": 4113, "becom": 4114, "begin": 4115, "belgi": 4116, "benef": 4117, "birth": 4118, "black": 4119, "block": 4120, "break": 4121, "brief": 4122, "broad": 4123, "brown": 4124, "busin": 4125, "cabin": 4126, "camer": 4127, "campa": 4128, "candi": 4129, "capac": 4130, "capit": 4131, "carib": 4132, "carol": 4133, "carri": 4134, "carto": 4135, "categ": 4136, "cathe": 4137, "catho": 4138, "celer": 4139, "centr": 4140, "centu": 4141, "cerem": 4142, "certi": 4143, "chair": 4144, "chall": 4145, "chand": 4146, "chang": 4147, "chemi": 4148, "child": 4149, "chron": 4150, "cinem": 4151, "circu": 4152, "citiz": 4153, "claim": 4154, "colla": 4155, "colle": 4156, "colli": 4157, "colon": 4158, "color": 4159, "colum": 4160, "commo": 4161, "compe": 4162, "compu": 4163, "conce": 4164, "confi": 4165, "confu": 4166, "conqu": 4167, "consi": 4168, "const": 4169, "coron": 4170, "coura": 4171, "cover": 4172, "decom": 4173, "decor": 4174, "defen": 4175, "defin": 4176, "degre": 4177, "deleg": 4178, "deman": 4179, "demon": 4180, "depar": 4181, "depen": 4182, "depic": 4183, "deplo": 4184, "deser": 4185, "desig": 4186, "detec": 4187, "deter": 4188, "devel": 4189, "diffi": 4190, "dimen": 4191, "direc": 4192, "disci": 4193, "disea": 4194, "dispu": 4195, "dissi": 4196, "diver": 4197, "divor": 4198, "docum": 4199, "domes": 4200, "domin": 4201, "dynam": 4202, "earli": 4203, "earth": 4204, "effec": 4205, "eliza": 4206, "embar": 4207, "emper": 4208, "empha": 4209, "emplo": 4210, "endor": 4211, "engag": 4212, "enhan": 4213, "enter": 4214, "enthu": 4215, "episo": 4216, "escap": 4217, "escor": 4218, "estab": 4219, "estim": 4220, "evacu": 4221, "every": 4222, "excav": 4223, "excep": 4224, "exclu": 4225, "execu": 4226, "exerc": 4227, "expan": 4228, "expec": 4229, "expen": 4230, "exper": 4231, "expla": 4232, "explo": 4233, "exten": 4234, "exter": 4235, "extra": 4236, "extre": 4237, "fashi": 4238, "favor": 4239, "febru": 4240, "feder": 4241, "festi": 4242, "finan": 4243, "flori": 4244, "forma": 4245, "formu": 4246, "forti": 4247, "fossi": 4248, "franc": 4249, "frank": 4250, "frequ": 4251, "fresh": 4252, "fried": 4253, "galax": 4254, "gamep": 4255, "gener": 4256, "glaci": 4257, "gosla": 4258, "gover": 4259, "gradu": 4260, "grand": 4261, "great": 4262, "green": 4263, "groun": 4264, "habit": 4265, "hamil": 4266, "heavi": 4267, "helic": 4268, "herit": 4269, "honor": 4270, "hosti": 4271, "house": 4272, "human": 4273, "hydro": 4274, "ignor": 4275, "impro": 4276, "inaug": 4277, "inclu": 4278, "incor": 4279, "indic": 4280, "infan": 4281, "influ": 4282, "inher": 4283, "initi": 4284, "innov": 4285, "inspi": 4286, "insul": 4287, "insur": 4288, "intel": 4289, "inten": 4290, "inter": 4291, "intro": 4292, "invol": 4293, "itali": 4294, "journ": 4295, "justi": 4296, "kenne": 4297, "kentu": 4298, "label": 4299, "labor": 4300, "lahom": 4301, "lanca": 4302, "lands": 4303, "langu": 4304, "legen": 4305, "legis": 4306, "liber": 4307, "licen": 4308, "light": 4309, "liter": 4310, "lithu": 4311, "liver": 4312, "lyric": 4313, "magaz": 4314, "magne": 4315, "manag": 4316, "maneu": 4317, "marga": 4318, "marke": 4319, "marsh": 4320, "maxim": 4321, "mccar": 4322, "medic": 4323, "metal": 4324, "metho": 4325, "metro": 4326, "mexic": 4327, "micha": 4328, "michi": 4329, "micro": 4330, "milli": 4331, "minim": 4332, "minne": 4333, "missi": 4334, "mista": 4335, "model": 4336, "moder": 4337, "monum": 4338, "motiv": 4339, "motor": 4340, "multi": 4341, "musli": 4342, "narra": 4343, "natur": 4344, "neigh": 4345, "neutr": 4346, "never": 4347, "newsp": 4348, "night": 4349, "nomin": 4350, "north": 4351, "norwe": 4352, "notic": 4353, "novel": 4354, "nucle": 4355, "obser": 4356, "occup": 4357, "occur": 4358, "offen": 4359, "offic": 4360, "ologi": 4361, "opini": 4362, "oppon": 4363, "oppos": 4364, "orche": 4365, "ordin": 4366, "organ": 4367, "other": 4368, "ottom": 4369, "paren": 4370, "parli": 4371, "patri": 4372, "patro": 4373, "persi": 4374, "persu": 4375, "peter": 4376, "phila": 4377, "phili": 4378, "philo": 4379, "photo": 4380, "physi": 4381, "pione": 4382, "polit": 4383, "popul": 4384, "portu": 4385, "posse": 4386, "possi": 4387, "poten": 4388, "power": 4389, "prece": 4390, "preci": 4391, "pregn": 4392, "premi": 4393, "presi": 4394, "previ": 4395, "princ": 4396, "probl": 4397, "proce": 4398, "prohi": 4399, "promo": 4400, "promp": 4401, "prote": 4402, "proto": 4403, "provi": 4404, "provo": 4405, "psych": 4406, "publi": 4407, "pursu": 4408, "quali": 4409, "quick": 4410, "radio": 4411, "rainf": 4412, "reali": 4413, "rebel": 4414, "recei": 4415, "recep": 4416, "recog": 4417, "recon": 4418, "recor": 4419, "recre": 4420, "recru": 4421, "recur": 4422, "refer": 4423, "regar": 4424, "regim": 4425, "relea": 4426, "reluc": 4427, "remin": 4428, "renew": 4429, "renov": 4430, "repor": 4431, "resem": 4432, "resol": 4433, "resta": 4434, "resul": 4435, "retre": 4436, "retri": 4437, "retur": 4438, "reven": 4439, "rever": 4440, "revie": 4441, "revol": 4442, "rhyth": 4443, "rican": 4444, "ricul": 4445, "river": 4446, "rober": 4447, "robin": 4448, "roman": 4449, "roose": 4450, "russi": 4451, "sacri": 4452, "satis": 4453, "satur": 4454, "scand": 4455, "schem": 4456, "schol": 4457, "scrip": 4458, "sculp": 4459, "secon": 4460, "secre": 4461, "sensi": 4462, "separ": 4463, "serva": 4464, "settl": 4465, "sever": 4466, "shake": 4467, "short": 4468, "shoul": 4469, "simil": 4470, "simul": 4471, "softw": 4472, "soldi": 4473, "somer": 4474, "sophi": 4475, "sound": 4476, "south": 4477, "sover": 4478, "spear": 4479, "speci": 4480, "spher": 4481, "spons": 4482, "squad": 4483, "stand": 4484, "stitu": 4485, "stock": 4486, "story": 4487, "stran": 4488, "strat": 4489, "stret": 4490, "stric": 4491, "stron": 4492, "struc": 4493, "studi": 4494, "subsi": 4495, "subur": 4496, "succe": 4497, "sugge": 4498, "sulli": 4499, "super": 4500, "supre": 4501, "surve": 4502, "survi": 4503, "susta": 4504, "symbo": 4505, "sympa": 4506, "symph": 4507, "targe": 4508, "teach": 4509, "teamm": 4510, "techn": 4511, "terri": 4512, "theat": 4513, "thema": 4514, "there": 4515, "throu": 4516, "ticip": 4517, "torpe": 4518, "total": 4519, "touch": 4520, "touri": 4521, "trans": 4522, "treas": 4523, "treat": 4524, "tribu": 4525, "typho": 4526, "ultim": 4527, "under": 4528, "utili": 4529, "versi": 4530, "verte": 4531, "veter": 4532, "villa": 4533, "virtu": 4534, "visit": 4535, "volun": 4536, "warri": 4537, "water": 4538, "weigh": 4539, "wheel": 4540, "where": 4541, "willi": 4542, "windo": 4543, "witne": 4544, "world": 4545, "wrest": 4546, "yanke": 4547, "<unk": 4548, "abor": 4549, "abun": 4550, "acci": 4551, "accu": 4552, "achi": 4553, "achu": 4554, "acqu": 4555, "acti": 4556, "actu": 4557, "adap": 4558, "adel": 4559, "adju": 4560, "adop": 4561, "adul": 4562, "affa": 4563, "agas": 4564, "agre": 4565, "alab": 4566, "albu": 4567, "alco": 4568, "alex": 4569, "alle": 4570, "alli": 4571, "allo": 4572, "alum": 4573, "amat": 4574, "ambi": 4575, "amer": 4576, "ance": 4577, "anch": 4578, "anim": 4579, "anni": 4580, "annu": 4581, "anth": 4582, "anti": 4583, "apar": 4584, "appe": 4585, "arab": 4586, "arch": 4587, "aren": 4588, "argu": 4589, "arre": 4590, "arri": 4591, "arth": 4592, "arti": 4593, "asse": 4594, "assi": 4595, "astr": 4596, "ater": 4597, "atmo": 4598, "atom": 4599, "atro": 4600, "audi": 4601, "augu": 4602, "auth": 4603, "auto": 4604, "aver": 4605, "avoi": 4606, "back": 4607, "ball": 4608, "bang": 4609, "bank": 4610, "base": 4611, "basi": 4612, "batt": 4613, "beat": 4614, "beau": 4615, "beha": 4616, "beli": 4617, "bene": 4618, "bern": 4619, "bili": 4620, "bill": 4621, "blan": 4622, "blin": 4623, "bloc": 4624, "bloo": 4625, "boar": 4626, "boun": 4627, "bour": 4628, "brad": 4629, "bran": 4630, "braz": 4631, "brea": 4632, "bren": 4633, "brid": 4634, "brig": 4635, "brit": 4636, "bron": 4637, "broo": 4638, "brun": 4639, "buck": 4640, "budd": 4641, "buff": 4642, "buil": 4643, "bulg": 4644, "buri": 4645, "burn": 4646, "cali": 4647, "camp": 4648, "cana": 4649, "care": 4650, "cast": 4651, "casu": 4652, "cele": 4653, "cell": 4654, "ceme": 4655, "cent": 4656, "cham": 4657, "chan": 4658, "chap": 4659, "char": 4660, "chas": 4661, "chec": 4662, "chel": 4663, "chem": 4664, "cher": 4665, "chic": 4666, "chil": 4667, "chin": 4668, "chol": 4669, "choo": 4670, "chor": 4671, "chri": 4672, "chur": 4673, "civi": 4674, "clar": 4675, "clea": 4676, "cler": 4677, "clif": 4678, "clim": 4679, "clin": 4680, "clou": 4681, "cock": 4682, "coll": 4683, "comb": 4684, "come": 4685, "comm": 4686, "como": 4687, "comp": 4688, "conc": 4689, "conf": 4690, "conn": 4691, "cont": 4692, "conv": 4693, "cool": 4694, "corn": 4695, "cost": 4696, "coun": 4697, "cour": 4698, "cous": 4699, "crac": 4700, "cran": 4701, "craw": 4702, "cred": 4703, "cric": 4704, "croa": 4705, "crow": 4706, "cust": 4707, "dang": 4708, "dani": 4709, "davi": 4710, "deal": 4711, "debu": 4712, "deci": 4713, "deep": 4714, "defe": 4715, "dela": 4716, "deli": 4717, "demo": 4718, "depu": 4719, "deri": 4720, "desi": 4721, "desp": 4722, "dest": 4723, "deta": 4724, "devi": 4725, "diag": 4726, "diam": 4727, "dipl": 4728, "disa": 4729, "disc": 4730, "disp": 4731, "dist": 4732, "divi": 4733, "does": 4734, "done": 4735, "doub": 4736, "down": 4737, "drag": 4738, "dram": 4739, "draw": 4740, "drin": 4741, "drum": 4742, "dwar": 4743, "easi": 4744, "east": 4745, "echo": 4746, "educ": 4747, "egyp": 4748, "eigh": 4749, "elec": 4750, "elev": 4751, "elim": 4752, "elli": 4753, "else": 4754, "embr": 4755, "emer": 4756, "emor": 4757, "enem": 4758, "ener": 4759, "enjo": 4760, "ensu": 4761, "enti": 4762, "entu": 4763, "envi": 4764, "equi": 4765, "erup": 4766, "esti": 4767, "euro": 4768, "ever": 4769, "evol": 4770, "exac": 4771, "exam": 4772, "exce": 4773, "exer": 4774, "exhi": 4775, "exic": 4776, "expe": 4777, "expl": 4778, "expo": 4779, "extr": 4780, "fail": 4781, "fair": 4782, "fami": 4783, "farm": 4784, "fear": 4785, "feat": 4786, "feel": 4787, "fici": 4788, "fiel": 4789, "figh": 4790, "figu": 4791, "fili": 4792, "film": 4793, "fini": 4794, "fire": 4795, "flag": 4796, "flan": 4797, "flem": 4798, "floo": 4799, "flow": 4800, "foot": 4801, "fore": 4802, "form": 4803, "foun": 4804, "four": 4805, "fram": 4806, "fran": 4807, "free": 4808, "fren": 4809, "fron": 4810, "func": 4811, "gall": 4812, "gang": 4813, "gate": 4814, "gene": 4815, "gent": 4816, "geor": 4817, "goal": 4818, "gold": 4819, "good": 4820, "goti": 4821, "gram": 4822, "gran": 4823, "greg": 4824, "grou": 4825, "grow": 4826, "guar": 4827, "guer": 4828, "guil": 4829, "guit": 4830, "hamp": 4831, "hand": 4832, "hang": 4833, "happ": 4834, "hard": 4835, "harv": 4836, "hatt": 4837, "hawa": 4838, "head": 4839, "hear": 4840, "hero": 4841, "high": 4842, "hill": 4843, "holi": 4844, "homo": 4845, "hori": 4846, "hosp": 4847, "howe": 4848, "hung": 4849, "hypo": 4850, "illu": 4851, "immi": 4852, "inci": 4853, "inde": 4854, "indi": 4855, "indu": 4856, "inju": 4857, "inno": 4858, "inqu": 4859, "insi": 4860, "insp": 4861, "inst": 4862, "inte": 4863, "inva": 4864, "iron": 4865, "isol": 4866, "isra": 4867, "issu": 4868, "ital": 4869, "iter": 4870, "jack": 4871, "john": 4872, "jour": 4873, "judi": 4874, "juli": 4875, "juni": 4876, "keep": 4877, "king": 4878, "know": 4879, "kore": 4880, "land": 4881, "laun": 4882, "lear": 4883, "legi": 4884, "leng": 4885, "leon": 4886, "less": 4887, "libr": 4888, "lieu": 4889, "life": 4890, "ligh": 4891, "linc": 4892, "lind": 4893, "ling": 4894, "liqu": 4895, "list": 4896, "lock": 4897, "long": 4898, "mach": 4899, "mack": 4900, "main": 4901, "mala": 4902, "mamm": 4903, "mani": 4904, "manu": 4905, "mari": 4906, "mark": 4907, "mary": 4908, "mass": 4909, "matt": 4910, "mcca": 4911, "mean": 4912, "medi": 4913, "melo": 4914, "ment": 4915, "merc": 4916, "mess": 4917, "mete": 4918, "meth": 4919, "midd": 4920, "mili": 4921, "mini": 4922, "minu": 4923, "modi": 4924, "mont": 4925, "more": 4926, "mort": 4927, "moun": 4928, "movi": 4929, "muni": 4930, "musc": 4931, "muse": 4932, "mush": 4933, "musi": 4934, "myst": 4935, "myth": 4936, "navi": 4937, "near": 4938, "nega": 4939, "nick": 4940, "niel": 4941, "nifi": 4942, "nine": 4943, "norm": 4944, "obli": 4945, "obvi": 4946, "occa": 4947, "occu": 4948, "octo": 4949, "offi": 4950, "ogra": 4951, "olog": 4952, "olym": 4953, "omen": 4954, "omin": 4955, "onom": 4956, "onym": 4957, "open": 4958, "oper": 4959, "oran": 4960, "oreg": 4961, "otyp": 4962, "oura": 4963, "over": 4964, "paci": 4965, "pack": 4966, "pain": 4967, "paki": 4968, "park": 4969, "part": 4970, "pass": 4971, "path": 4972, "pati": 4973, "penn": 4974, "perc": 4975, "perf": 4976, "peri": 4977, "peti": 4978, "phen": 4979, "phil": 4980, "phra": 4981, "piec": 4982, "pier": 4983, "plac": 4984, "plan": 4985, "plat": 4986, "play": 4987, "plea": 4988, "plem": 4989, "poin": 4990, "poli": 4991, "poly": 4992, "poor": 4993, "popu": 4994, "port": 4995, "posi": 4996, "post": 4997, "prac": 4998, "pred": 4999, "pres": 5000, "prev": 5001, "prin": 5002, "priv": 5003, "prob": 5004, "prof": 5005, "proj": 5006, "pron": 5007, "prot": 5008, "puer": 5009, "puni": 5010, "quar": 5011, "ques": 5012, "rach": 5013, "radi": 5014, "rail": 5015, "rain": 5016, "rapi": 5017, "rati": 5018, "read": 5019, "real": 5020, "reas": 5021, "reci": 5022, "redi": 5023, "refl": 5024, "refu": 5025, "regi": 5026, "regu": 5027, "rein": 5028, "rela": 5029, "reli": 5030, "rema": 5031, "remn": 5032, "remo": 5033, "reng": 5034, "repe": 5035, "repu": 5036, "requ": 5037, "resc": 5038, "resi": 5039, "rest": 5040, "reti": 5041, "reve": 5042, "revi": 5043, "ribu": 5044, "rich": 5045, "ring": 5046, "road": 5047, "rock": 5048, "roun": 5049, "sail": 5050, "salv": 5051, "sanc": 5052, "sand": 5053, "sant": 5054, "saur": 5055, "scar": 5056, "scen": 5057, "schi": 5058, "scho": 5059, "scop": 5060, "scor": 5061, "scot": 5062, "scra": 5063, "scre": 5064, "scri": 5065, "scul": 5066, "sear": 5067, "secu": 5068, "semi": 5069, "sent": 5070, "sept": 5071, "sequ": 5072, "seri": 5073, "serv": 5074, "sett": 5075, "sexu": 5076, "shad": 5077, "shak": 5078, "shap": 5079, "shar": 5080, "shel": 5081, "sher": 5082, "ship": 5083, "shir": 5084, "shoo": 5085, "shop": 5086, "shor": 5087, "show": 5088, "shut": 5089, "sias": 5090, "sign": 5091, "simp": 5092, "sing": 5093, "sion": 5094, "situ": 5095, "skil": 5096, "skir": 5097, "slow": 5098, "smar": 5099, "smis": 5100, "soci": 5101, "soli": 5102, "some": 5103, "song": 5104, "soun": 5105, "sour": 5106, "spac": 5107, "span": 5108, "spar": 5109, "spea": 5110, "spec": 5111, "sper": 5112, "spin": 5113, "spir": 5114, "spon": 5115, "spor": 5116, "stab": 5117, "stac": 5118, "staf": 5119, "stal": 5120, "stam": 5121, "stan": 5122, "star": 5123, "stat": 5124, "stea": 5125, "stel": 5126, "step": 5127, "ster": 5128, "stev": 5129, "stic": 5130, "stoc": 5131, "stop": 5132, "stor": 5133, "stra": 5134, "stre": 5135, "stri": 5136, "stro": 5137, "stru": 5138, "sump": 5139, "supp": 5140, "susp": 5141, "swim": 5142, "swit": 5143, "sylv": 5144, "symp": 5145, "syst": 5146, "tain": 5147, "tami": 5148, "tane": 5149, "tari": 5150, "tech": 5151, "teen": 5152, "tele": 5153, "temp": 5154, "terr": 5155, "than": 5156, "thel": 5157, "them": 5158, "ther": 5159, "thin": 5160, "thir": 5161, "thom": 5162, "thor": 5163, "thou": 5164, "thre": 5165, "thri": 5166, "thro": 5167, "thum": 5168, "tici": 5169, "tion": 5170, "titu": 5171, "toge": 5172, "toni": 5173, "tori": 5174, "tour": 5175, "town": 5176, "trac": 5177, "traf": 5178, "tran": 5179, "trea": 5180, "tren": 5181, "trig": 5182, "trou": 5183, "turk": 5184, "turn": 5185, "twel": 5186, "upri": 5187, "vail": 5188, "vali": 5189, "valu": 5190, "vari": 5191, "vege": 5192, "vehi": 5193, "vers": 5194, "vest": 5195, "vide": 5196, "viet": 5197, "vinc": 5198, "viol": 5199, "visu": 5200, "voic": 5201, "wall": 5202, "wash": 5203, "weap": 5204, "week": 5205, "west": 5206, "what": 5207, "whel": 5208, "wher": 5209, "whit": 5210, "wick": 5211, "wild": 5212, "wind": 5213, "with": 5214, "wood": 5215, "work": 5216, "woun": 5217, "wrec": 5218, "writ": 5219, "york": 5220, "youn": 5221, "zeal": 5222, "179": 5223, "180": 5224, "185": 5225, "186": 5226, "187": 5227, "188": 5228, "189": 5229, "190": 5230, "193": 5231, "194": 5232, "195": 5233, "196": 5234, "197": 5235, "198": 5236, "199": 5237, "200": 5238, "201": 5239, "abo": 5240, "abs": 5241, "abu": 5242, "acc": 5243, "ace": 5244, "ach": 5245, "aci": 5246, "ack": 5247, "acu": 5248, "ade": 5249, "adi": 5250, "adm": 5251, "adv": 5252, "aff": 5253, "aga": 5254, "agu": 5255, "aim": 5256, "air": 5257, "alb": 5258, "ali": 5259, "all": 5260, "alo": 5261, "alu": 5262, "aly": 5263, "ama": 5264, "ami": 5265, "amm": 5266, "amp": 5267, "ana": 5268, "and": 5269, "ang": 5270, "ani": 5271, "ann": 5272, "ans": 5273, "ant": 5274, "any": 5275, "apo": 5276, "app": 5277, "aqu": 5278, "ara": 5279, "arc": 5280, "are": 5281, "ari": 5282, "arm": 5283, "arn": 5284, "art": 5285, "ash": 5286, "ass": 5287, "ast": 5288, "ate": 5289, "ath": 5290, "att": 5291, "aug": 5292, "aul": 5293, "aut": 5294, "avi": 5295, "avo": 5296, "awa": 5297, "bab": 5298, "bac": 5299, "bad": 5300, "bag": 5301, "bal": 5302, "ban": 5303, "bap": 5304, "bar": 5305, "bas": 5306, "bat": 5307, "bau": 5308, "bay": 5309, "bea": 5310, "bec": 5311, "bed": 5312, "bel": 5313, "ben": 5314, "ber": 5315, "bet": 5316, "bey": 5317, "bic": 5318, "big": 5319, "bil": 5320, "bin": 5321, "bio": 5322, "bir": 5323, "bis": 5324, "bit": 5325, "bla": 5326, "ble": 5327, "bli": 5328, "blo": 5329, "blu": 5330, "bol": 5331, "bom": 5332, "bon": 5333, "boo": 5334, "bor": 5335, "bos": 5336, "bot": 5337, "bou": 5338, "bow": 5339, "box": 5340, "boy": 5341, "bra": 5342, "bre": 5343, "bri": 5344, "bro": 5345, "bru": 5346, "bud": 5347, "bul": 5348, "bun": 5349, "bur": 5350, "but": 5351, "byz": 5352, "cal": 5353, "cam": 5354, "can": 5355, "cap": 5356, "car": 5357, "cas": 5358, "cat": 5359, "cau": 5360, "cav": 5361, "cea": 5362, "ced": 5363, "cel": 5364, "cem": 5365, "cen": 5366, "cep": 5367, "cer": 5368, "ces": 5369, "cha": 5370, "che": 5371, "chi": 5372, "cho": 5373, "chu": 5374, "cin": 5375, "cir": 5376, "cit": 5377, "cla": 5378, "cle": 5379, "cli": 5380, "clo": 5381, "clu": 5382, "coa": 5383, "col": 5384, "com": 5385, "con": 5386, "coo": 5387, "cop": 5388, "cor": 5389, "cot": 5390, "cou": 5391, "cra": 5392, "cre": 5393, "cri": 5394, "cro": 5395, "cru": 5396, "cry": 5397, "cul": 5398, "cum": 5399, "cur": 5400, "cut": 5401, "cyc": 5402, "dal": 5403, "dam": 5404, "dan": 5405, "dar": 5406, "dau": 5407, "day": 5408, "dea": 5409, "deb": 5410, "dec": 5411, "def": 5412, "del": 5413, "dem": 5414, "den": 5415, "dep": 5416, "der": 5417, "det": 5418, "dic": 5419, "did": 5420, "dif": 5421, "dig": 5422, "din": 5423, "dir": 5424, "dis": 5425, "dit": 5426, "div": 5427, "doc": 5428, "dol": 5429, "dom": 5430, "don": 5431, "dor": 5432, "dou": 5433, "dow": 5434, "dra": 5435, "dre": 5436, "dri": 5437, "dro": 5438, "dru": 5439, "duc": 5440, "dun": 5441, "dur": 5442, "dwi": 5443, "ear": 5444, "ech": 5445, "ecu": 5446, "edu": 5447, "eff": 5448, "ele": 5449, "eli": 5450, "ell": 5451, "emo": 5452, "emp": 5453, "end": 5454, "eng": 5455, "ens": 5456, "ent": 5457, "enz": 5458, "eph": 5459, "epi": 5460, "equ": 5461, "eri": 5462, "ero": 5463, "esc": 5464, "esp": 5465, "ess": 5466, "est": 5467, "eth": 5468, "eur": 5469, "evi": 5470, "exi": 5471, "exp": 5472, "ext": 5473, "fab": 5474, "fac": 5475, "fal": 5476, "fam": 5477, "fan": 5478, "far": 5479, "fas": 5480, "fat": 5481, "fav": 5482, "fea": 5483, "fel": 5484, "fem": 5485, "fen": 5486, "fer": 5487, "fes": 5488, "fic": 5489, "fif": 5490, "fig": 5491, "fil": 5492, "fin": 5493, "fir": 5494, "fit": 5495, "fix": 5496, "fla": 5497, "fle": 5498, "fli": 5499, "flo": 5500, "flu": 5501, "foc": 5502, "fol": 5503, "fon": 5504, "foo": 5505, "for": 5506, "fra": 5507, "fre": 5508, "fri": 5509, "fro": 5510, "fru": 5511, "ful": 5512, "fun": 5513, "fur": 5514, "gab": 5515, "gal": 5516, "gam": 5517, "gan": 5518, "gar": 5519, "gas": 5520, "gau": 5521, "gaz": 5522, "gen": 5523, "ger": 5524, "ges": 5525, "gho": 5526, "ght": 5527, "gib": 5528, "gil": 5529, "gin": 5530, "gir": 5531, "gla": 5532, "gli": 5533, "glo": 5534, "god": 5535, "gol": 5536, "gom": 5537, "gon": 5538, "gor": 5539, "got": 5540, "gra": 5541, "gre": 5542, "gri": 5543, "gro": 5544, "gru": 5545, "gui": 5546, "gul": 5547, "gun": 5548, "hal": 5549, "ham": 5550, "han": 5551, "har": 5552, "hat": 5553, "hau": 5554, "haw": 5555, "hay": 5556, "haz": 5557, "hea": 5558, "hei": 5559, "hel": 5560, "hem": 5561, "hen": 5562, "her": 5563, "hil": 5564, "him": 5565, "hin": 5566, "hit": 5567, "hol": 5568, "hom": 5569, "hon": 5570, "hoo": 5571, "hop": 5572, "hor": 5573, "hou": 5574, "hum": 5575, "hun": 5576, "hur": 5577, "hus": 5578, "hut": 5579, "ici": 5580, "ick": 5581, "ide": 5582, "ili": 5583, "ill": 5584, "ima": 5585, "imp": 5586, "inc": 5587, "ine": 5588, "inf": 5589, "ing": 5590, "ini": 5591, "inj": 5592, "int": 5593, "inv": 5594, "ior": 5595, "iow": 5596, "ira": 5597, "ire": 5598, "iri": 5599, "isa": 5600, "isi": 5601, "iso": 5602, "iss": 5603, "jac": 5604, "jam": 5605, "jan": 5606, "jap": 5607, "jar": 5608, "jef": 5609, "jen": 5610, "jer": 5611, "jes": 5612, "jim": 5613, "joh": 5614, "jon": 5615, "jor": 5616, "jud": 5617, "jum": 5618, "jun": 5619, "kal": 5620, "kam": 5621, "kan": 5622, "kar": 5623, "kat": 5624, "kel": 5625, "ken": 5626, "kep": 5627, "ker": 5628, "kes": 5629, "ket": 5630, "kev": 5631, "key": 5632, "kic": 5633, "kid": 5634, "kil": 5635, "kin": 5636, "kir": 5637, "kit": 5638, "kne": 5639, "kni": 5640, "kno": 5641, "kom": 5642, "kon": 5643, "kor": 5644, "kra": 5645, "kri": 5646, "kur": 5647, "lac": 5648, "lam": 5649, "lan": 5650, "lar": 5651, "lat": 5652, "lau": 5653, "law": 5654, "lay": 5655, "lea": 5656, "lec": 5657, "leg": 5658, "lei": 5659, "lem": 5660, "len": 5661, "les": 5662, "let": 5663, "lev": 5664, "lew": 5665, "lic": 5666, "lig": 5667, "lik": 5668, "lim": 5669, "lin": 5670, "lip": 5671, "lis": 5672, "lit": 5673, "lli": 5674, "loc": 5675, "log": 5676, "lon": 5677, "loo": 5678, "lor": 5679, "lot": 5680, "lou": 5681, "low": 5682, "loy": 5683, "luc": 5684, "lun": 5685, "lyn": 5686, "mac": 5687, "mad": 5688, "mag": 5689, "mah": 5690, "mai": 5691, "maj": 5692, "mal": 5693, "man": 5694, "mar": 5695, "mas": 5696, "mat": 5697, "mau": 5698, "max": 5699, "may": 5700, "mck": 5701, "mea": 5702, "mec": 5703, "med": 5704, "mee": 5705, "mel": 5706, "mem": 5707, "men": 5708, "mer": 5709, "mes": 5710, "met": 5711, "mic": 5712, "mid": 5713, "mil": 5714, "min": 5715, "mir": 5716, "mis": 5717, "mit": 5718, "mix": 5719, "mol": 5720, "mom": 5721, "mon": 5722, "mor": 5723, "mou": 5724, "mul": 5725, "mun": 5726, "mur": 5727, "nad": 5728, "nam": 5729, "nan": 5730, "nap": 5731, "nar": 5732, "nas": 5733, "nat": 5734, "nau": 5735, "naz": 5736, "nea": 5737, "nec": 5738, "nei": 5739, "nel": 5740, "ner": 5741, "nes": 5742, "net": 5743, "neu": 5744, "new": 5745, "nex": 5746, "nic": 5747, "nin": 5748, "nit": 5749, "non": 5750, "nor": 5751, "not": 5752, "nov": 5753, "now": 5754, "num": 5755, "nur": 5756, "obj": 5757, "off": 5758, "ohi": 5759, "ole": 5760, "oli": 5761, "olo": 5762, "oly": 5763, "ome": 5764, "one": 5765, "ong": 5766, "oni": 5767, "ore": 5768, "org": 5769, "ori": 5770, "oul": 5771, "oun": 5772, "our": 5773, "ous": 5774, "out": 5775, "ovi": 5776, "own": 5777, "oxi": 5778, "oxy": 5779, "pac": 5780, "pad": 5781, "pag": 5782, "pal": 5783, "pan": 5784, "pap": 5785, "par": 5786, "pas": 5787, "pat": 5788, "pau": 5789, "pay": 5790, "pea": 5791, "pel": 5792, "pen": 5793, "pep": 5794, "per": 5795, "pha": 5796, "phe": 5797, "phi": 5798, "pho": 5799, "phy": 5800, "pic": 5801, "pil": 5802, "pin": 5803, "pir": 5804, "pit": 5805, "pla": 5806, "ple": 5807, "plo": 5808, "plu": 5809, "poe": 5810, "pol": 5811, "pon": 5812, "por": 5813, "pos": 5814, "pot": 5815, "pow": 5816, "pra": 5817, "pre": 5818, "pri": 5819, "pro": 5820, "psy": 5821, "pul": 5822, "pun": 5823, "pur": 5824, "qua": 5825, "que": 5826, "qui": 5827, "quo": 5828, "rac": 5829, "rai": 5830, "ral": 5831, "ram": 5832, "ran": 5833, "rap": 5834, "rat": 5835, "rea": 5836, "rec": 5837, "red": 5838, "reg": 5839, "rei": 5840, "rel": 5841, "rem": 5842, "ren": 5843, "rep": 5844, "ret": 5845, "rho": 5846, "rhy": 5847, "ric": 5848, "rid": 5849, "rif": 5850, "ris": 5851, "rit": 5852, "rob": 5853, "roc": 5854, "rod": 5855, "rol": 5856, "rom": 5857, "ron": 5858, "roo": 5859, "ros": 5860, "rot": 5861, "rou": 5862, "row": 5863, "roy": 5864, "rug": 5865, "rum": 5866, "run": 5867, "rup": 5868, "sab": 5869, "sac": 5870, "sad": 5871, "saf": 5872, "sal": 5873, "sam": 5874, "san": 5875, "sar": 5876, "sat": 5877, "sau": 5878, "sav": 5879, "sch": 5880, "sci": 5881, "sco": 5882, "sea": 5883, "sec": 5884, "see": 5885, "sei": 5886, "sel": 5887, "sem": 5888, "sen": 5889, "sep": 5890, "ser": 5891, "set": 5892, "sev": 5893, "sex": 5894, "sha": 5895, "she": 5896, "shi": 5897, "sho": 5898, "shr": 5899, "shu": 5900, "sie": 5901, "sig": 5902, "sil": 5903, "sim": 5904, "sin": 5905, "sit": 5906, "six": 5907, "ski": 5908, "sky": 5909, "sla": 5910, "sle": 5911, "sli": 5912, "slo": 5913, "slu": 5914, "smo": 5915, "sna": 5916, "soc": 5917, "sof": 5918, "sol": 5919, "som": 5920, "son": 5921, "sop": 5922, "sor": 5923, "sou": 5924, "spe": 5925, "spi": 5926, "spo": 5927, "spr": 5928, "squ": 5929, "ssi": 5930, "sta": 5931, "ste": 5932, "sti": 5933, "sto": 5934, "str": 5935, "stu": 5936, "sty": 5937, "sub": 5938, "suc": 5939, "sud": 5940, "suf": 5941, "sug": 5942, "sul": 5943, "sum": 5944, "sun": 5945, "sup": 5946, "sur": 5947, "swe": 5948, "swi": 5949, "syl": 5950, "sym": 5951, "syn": 5952, "tab": 5953, "tac": 5954, "tag": 5955, "tai": 5956, "tal": 5957, "tam": 5958, "tan": 5959, "tap": 5960, "tar": 5961, "tas": 5962, "tat": 5963, "tax": 5964, "tec": 5965, "tel": 5966, "tem": 5967, "ten": 5968, "ter": 5969, "tex": 5970, "the": 5971, "thi": 5972, "tho": 5973, "thu": 5974, "tic": 5975, "til": 5976, "tim": 5977, "tin": 5978, "tis": 5979, "tit": 5980, "tiv": 5981, "tiz": 5982, "tol": 5983, "tom": 5984, "ton": 5985, "top": 5986, "tor": 5987, "tot": 5988, "tou": 5989, "tox": 5990, "tra": 5991, "tre": 5992, "tri": 5993, "tro": 5994, "tru": 5995, "tun": 5996, "tur": 5997, "twi": 5998, "typ": 5999, "uni": 6000, "unk": 6001, "use": 6002, "usu": 6003, "uti": 6004, "vac": 6005, "val": 6006, "van": 6007, "var": 6008, "vel": 6009, "ven": 6010, "ver": 6011, "ves": 6012, "vic": 6013, "vie": 6014, "vil": 6015, "vin": 6016, "vir": 6017, "vis": 6018, "vit": 6019, "voc": 6020, "vol": 6021, "voy": 6022, "vul": 6023, "wad": 6024, "wag": 6025, "wal": 6026, "wan": 6027, "war": 6028, "was": 6029, "wat": 6030, "wea": 6031, "web": 6032, "wed": 6033, "wee": 6034, "wei": 6035, "wel": 6036, "wer": 6037, "whe": 6038, "whi": 6039, "wic": 6040, "wid": 6041, "wil": 6042, "win": 6043, "wis": 6044, "wit": 6045, "wol": 6046, "wom": 6047, "won": 6048, "woo": 6049, "wor": 6050, "wro": 6051, "xim": 6052, "yan": 6053, "yel": 6054, "yor": 6055, "you": 6056, "ysi": 6057, "zer": 6058, "10": 6059, "11": 6060, "12": 6061, "13": 6062, "14": 6063, "15": 6064, "16": 6065, "17": 6066, "18": 6067, "19": 6068, "20": 6069, "@-": 6070, "ab": 6071, "ac": 6072, "ad": 6073, "ae": 6074, "af": 6075, "ag": 6076, "ah": 6077, "ai": 6078, "ak": 6079, "al": 6080, "am": 6081, "an": 6082, "ap": 6083, "ar": 6084, "as": 6085, "at": 6086, "au": 6087, "av": 6088, "aw": 6089, "ax": 6090, "ay": 6091, "az": 6092, "ba": 6093, "bb": 6094, "be": 6095, "bi": 6096, "bl": 6097, "bo": 6098, "br": 6099, "bu": 6100, "by": 6101, "ca": 6102, "ce": 6103, "ch": 6104, "ci": 6105, "ck": 6106, "cl": 6107, "co": 6108, "cr": 6109, "cu": 6110, "cy": 6111, "cz": 6112, "da": 6113, "dd": 6114, "de": 6115, "di": 6116, "do": 6117, "dr": 6118, "du": 6119, "dv": 6120, "dy": 6121, "ea": 6122, "ec": 6123, "ed": 6124, "ef": 6125, "eg": 6126, "ei": 6127, "el": 6128, "em": 6129, "en": 6130, "ep": 6131, "er": 6132, "es": 6133, "et": 6134, "eu": 6135, "ev": 6136, "ex": 6137, "ey": 6138, "fa": 6139, "fe": 6140, "ff": 6141, "fi": 6142, "fl": 6143, "fo": 6144, "fr": 6145, "fu": 6146, "ga": 6147, "ge": 6148, "gg": 6149, "gh": 6150, "gi": 6151, "gl": 6152, "gn": 6153, "go": 6154, "gr": 6155, "gu": 6156, "gy": 6157, "ha": 6158, "he": 6159, "hi": 6160, "ho": 6161, "hu": 6162, "hy": 6163, "ib": 6164, "ic": 6165, "id": 6166, "ig": 6167, "il": 6168, "im": 6169, "in": 6170, "ir": 6171, "is": 6172, "it": 6173, "ja": 6174, "je": 6175, "ji": 6176, "jo": 6177, "ju": 6178, "ka": 6179, "ke": 6180, "kh": 6181, "ki": 6182, "ko": 6183, "ku": 6184, "ky": 6185, "la": 6186, "ld": 6187, "le": 6188, "li": 6189, "ll": 6190, "lo": 6191, "lu": 6192, "ly": 6193, "ma": 6194, "mc": 6195, "me": 6196, "mi": 6197, "mo": 6198, "mp": 6199, "mu": 6200, "my": 6201, "na": 6202, "ne": 6203, "ni": 6204, "no": 6205, "nu": 6206, "ny": 6207, "ob": 6208, "oc": 6209, "od": 6210, "of": 6211, "og": 6212, "ok": 6213, "ol": 6214, "om": 6215, "on": 6216, "oo": 6217, "op": 6218, "or": 6219, "os": 6220, "ot": 6221, "ou": 6222, "ov": 6223, "ow": 6224, "ox": 6225, "pa": 6226, "pe": 6227, "ph": 6228, "pi": 6229, "pl": 6230, "po": 6231, "pp": 6232, "pr": 6233, "pu": 6234, "py": 6235, "qu": 6236, "ra": 6237, "re": 6238, "rh": 6239, "ri": 6240, "ro": 6241, "ru": 6242, "ry": 6243, "sa": 6244, "sc": 6245, "se": 6246, "sh": 6247, "si": 6248, "sk": 6249, "sm": 6250, "sn": 6251, "so": 6252, "sp": 6253, "ss": 6254, "st": 6255, "su": 6256, "sw": 6257, "sy": 6258, "ta": 6259, "te": 6260, "th": 6261, "ti": 6262, "to": 6263, "tr": 6264, "ts": 6265, "tu": 6266, "tw": 6267, "ty": 6268, "tz": 6269, "uc": 6270, "ul": 6271, "um": 6272, "un": 6273, "up": 6274, "ur": 6275, "us": 6276, "ut": 6277, "va": 6278, "ve": 6279, "vi": 6280, "vo": 6281, "vy": 6282, "wa": 6283, "we": 6284, "wh": 6285, "wi": 6286, "wn": 6287, "wo": 6288, "wr": 6289, "wy": 6290, "xi": 6291, "ya": 6292, "yi": 6293, "yl": 6294, "ym": 6295, "yn": 6296, "yo": 6297, "yp": 6298, "yu": 6299, "za": 6300, "ze": 6301, "zi": 6302, "zo": 6303, "zu": 6304, "zz": 6305, "!": 6306, "#": 6307, "$": 6308, "%": 6309, "&": 6310, "'": 6311, "(": 6312, ")": 6313, "*": 6314, "+": 6315, ",": 6316, "-": 6317, ".": 6318, "/": 6319, "0": 6320, "1": 6321, "2": 6322, "3": 6323, "4": 6324, "5": 6325, "6": 6326, "7": 6327, "8": 6328, "9": 6329, ":": 6330, ";": 6331, "<": 6332, "=": 6333, ">": 6334, "?": 6335, "@": 6336, "\\": 6337, "^": 6338, "_": 6339, "`": 6340, "a": 6341, "b": 6342, "c": 6343, "d": 6344, "e": 6345, "f": 6346, "g": 6347, "h": 6348, "i": 6349, "j": 6350, "k": 6351, "l": 6352, "m": 6353, "n": 6354, "o": 6355, "p": 6356, "q": 6357, "r": 6358, "s": 6359, "t": 6360, "u": 6361, "v": 6362, "w": 6363, "x": 6364, "y": 6365, "z": 6366, "|": 6367, "~": 6368, "</END>": 6369}